{"word2id": {"_PAD": 0, "_BOS": 1, "_EOS": 2, "_UNK": 3, "是": 4, "什么": 5, "，": 6, "的": 7, "。": 8, "？": 9, "怎么": 10, "你": 11, "和": 12, "有": 13, "我": 14, "做": 15, "吗": 16, "、": 17, "今天": 18, "很": 19, "适合": 20, "再": 21, "了": 22, "觉得": 23, "先": 24, "用": 25, "自己": 26, "不": 27, "看": 28, "在": 29, "目标": 30, "项目": 31, "更": 32, "你好": 33, "也": 34, "基础": 35, "能": 36, "哪些": 37, "需要": 38, "入门": 39, "并": 40, "练习": 41, "学习": 42, "穿": 43, "会": 44, "时间": 45, "任务": 46, "好": 47, "可以": 48, "人": 49, "复盘": 50, "坚持": 51, "被": 52, "去": 53, "常见": 54, "掌握": 55, "处理": 56, "文档": 57, "为什么": 58, "学": 59, "明确": 60, "问题": 61, "建议": 62, "效果": 63, "中国": 64, "重要": 65, "把": 66, "进步": 67, "误区": 68, "计划": 69, "及时": 70, "长期": 71, "定期": 72, ",": 73, "保持": 74, "到": 75, "心": 76, "不够": 77, "核心": 78, "持续": 79, "设定": 80, "检测": 81, "因为": 82, "节奏": 83, "上": 84, "能力": 85, "避免": 86, "方法": 87, "多久": 88, "官方": 89, "阶段性": 90, "逐步": 91, "或": 92, "自学": 93, "实践": 94, "解决": 95, "短期": 96, "课程": 97, "小": 98, "手机": 99, "突破": 100, "与": 101, "记录": 102, "从": 103, "运动": 104, "固定": 105, "管理": 106, "参加": 107, "一个": 108, "最": 109, "玩": 110, "中": 111, "通常": 112, "多": 113, "注意": 114, "常见问题": 115, "通过": 116, "关键": 117, "国家": 118, "高": 119, "拆解": 120, "笔记": 121, "但": 122, "反馈": 123, "积累": 124, "看到": 125, "知识": 126, "提高": 127, "难": 128, "更好": 129, "只": 130, "如何": 131, "高效": 132, "取决于": 133, "《": 134, "》": 135, "分析": 136, "整理": 137, "建立": 138, "点": 139, "时": 140, "两": 141, "喜欢": 142, "评估": 143, "法律": 144, "对": 145, "没有": 146, "行动": 147, "经典": 148, "资料": 149, "制定": 150, "每天": 151, "优先级": 152, "题": 153, "回顾": 154, "教材": 155, "来": 156, "帮助": 157, "实际": 158, "减少": 159, "规定": 160, "吃": 161, "想": 162, "优化": 163, "寻求": 164, "实用技巧": 165, "改进": 166, "业务": 167, "模仿": 168, "大": 169, "形成": 170, "评价": 171, "投入": 172, "数据": 173, "怎么办": 174, "巩固": 175, "三周": 176, "工具": 177, "留出": 178, "成熟": 179, "环境": 180, "要": 181, "压力": 182, "结合": 183, "而": 184, "调整": 185, "里": 186, "拆小": 187, "收集": 188, "主干": 189, "资源": 190, "中断": 191, "成功率": 192, "快速": 193, "相关": 194, "让": 195, "提升": 196, "找到": 197, "理解": 198, "查": 199, "串联": 200, "逻辑": 201, "过度": 202, "体验": 203, "说": 204, "研究": 205, "补充": 206, "真正": 207, "水平": 208, "路径": 209, "允许": 210, "音乐": 211, "就": 212, "合理": 213, "案例": 214, "配合": 215, "快乐": 216, "正确": 217, "关注": 218, "说明": 219, "最后": 220, "高质量": 221, "完整": 222, "加": 223, "沟通": 224, "性能": 225, "不难": 226, "扩展": 227, "优先": 228, "范围": 229, "体系": 230, "讲解": 231, "系统": 232, "竞争力": 233, "必要": 234, "版本": 235, "急于求成": 236, "先跑": 237, "通小": 238, "少而精": 239, "深入": 240, "细节": 241, "大纲": 242, "讲清楚": 243, "场景": 244, "可": 245, "可用": 246, "选型": 247, "解决办法": 248, "开始": 249, "拆成": 250, "机制": 251, "优质": 252, "表达": 253, "缩小": 254, "最好": 255, "社区": 256, "手": 257, "走弯路": 258, "习惯": 259, "基本概念": 260, "工作": 261, "复现": 262, "感觉": 263, "小步": 264, "仍": 265, "需": 266, "样式": 267, "卡点": 268, "示例": 269, "日": 270, "损失": 271, "即可": 272, "替换成": 273, "最佳": 274, "不要": 275, "进阶": 276, "工程化": 277, "周": 278, "休息时间": 279, "都": 280, "传统": 281, "古代": 282, "选择": 283, "什么游戏": 284, "力": 285, "练": 286, "开心": 287, "保护": 288, "读": 289, "风险": 290, "软件": 291, "世界": 292, "开": 293, "休息": 294, "先抓": 295, "概念": 296, "事": 297, "包括": 298, "身体": 299, "缺少": 300, "配置": 301, "后": 302, "精神": 303, "不牢": 304, "逐项": 305, "写": 306, "执行": 307, "控制": 308, "团队": 309, "聊天": 310, "了解": 311, "准备": 312, "天气": 313, "带": 314, "动物": 315, "为": 316, "合适": 317, "安排": 318, "效率": 319, "等": 320, "明显": 321, "旅游": 322, "给": 323, "品质": 324, "物质": 325, "再用": 326, "注册": 327, "思考": 328, "地": 329, "计算": 330, "交通": 331, "设置": 332, "关系": 333, "步骤": 334, "税": 335, "语言": 336, "服": 337, "信息": 338, "技术": 339, "信用": 340, "生活": 341, "一下": 342, "机器人": 343, "就是": 344, "不同": 345, "根据": 346, "游泳": 347, "值得": 348, "谁": 349, "心是": 350, "影响": 351, "设计": 352, "稳定": 353, "推荐": 354, "最近": 355, "表现": 356, "多少": 357, "按": 358, "有点": 359, "熟": 360, "朋友": 361, "别人": 362, "面试": 363, "实验": 364, "预防": 365, "一般": 366, "循序渐进": 367, "社会": 368, "活动": 369, "靠": 370, "发展": 371, "怎样": 372, "保险": 373, "宇宙": 374, "非常": 375, "运营": 376, "物理": 377, "放松": 378, "最美": 379, "人物": 380, "生物": 381, "条件": 382, "化学": 383, "主题": 384, "过": 385, "?": 386, "食物": 387, "东西": 388, "尊重": 389, "最大": 390, "缓解": 391, "情绪": 392, "还": 393, "使用": 394, "协作": 395, "用户": 396, "饮食": 397, "煮熟": 398, "故事": 399, "武术": 400, "需求": 401, "钱": 402, "开发": 403, "电脑": 404, "价值": 405, "作品": 406, "结构": 407, "事物": 408, "努力": 409, "人生": 410, "提前": 411, "选": 412, "住宿": 413, "机器": 414, "文化": 415, "少": 416, "感": 417, "地方": 418, "为了": 419, "养": 420, "口碑": 421, "水": 422, "维护": 423, "新手": 424, "装备": 425, "代码": 426, "状态": 427, "请": 428, "亲": 429, "成长": 430, "舒适": 431, "深呼吸": 432, "公式": 433, "时候": 434, "医生": 435, "得到": 436, "自由": 437, "植物": 438, "新": 439, "幸福": 440, "快递": 441, "预算": 442, "容易": 443, "追求": 444, "存在": 445, "应该": 446, "计算机": 447, "不能": 448, "跑步": 449, "勇敢": 450, "腌制": 451, "做好": 452, "经验": 453, "质量": 454, "知道": 455, "声音": 456, "呢": 457, "衣服": 458, "规律": 459, "光": 460, "将": 461, "猫": 462, "很多": 463, "内容": 464, "热身": 465, "产生": 466, "舞曲": 467, "我们": 468, "细胞": 469, "视频": 470, "心情": 471, "行为": 472, "支持": 473, "希望": 474, "阅读": 475, "游戏": 476, "焦虑": 477, "决定": 478, "测试": 479, "人类": 480, "沙漠": 481, "哪里": 482, "个": 483, "找": 484, "保障": 485, "地球": 486, "材料": 487, "模型": 488, "变化": 489, "动作": 490, "洗": 491, "就医": 492, "服务": 493, "投资": 494, "接受": 495, "获得": 496, "组织": 497, "无限": 498, "理论": 499, "鸟类": 500, "鱼": 501, "休闲": 502, "偶尔": 503, "之间": 504, "炖煮": 505, "面条": 506, "美": 507, "能量": 508, "提前准备": 509, "朝代": 510, "玩笑": 511, "粒子": 512, "残疾人": 513, "永远": 514, "一起": 515, "空气": 516, "经济": 517, "呼吸": 518, "紧张": 519, "公司": 520, "滑雪": 521, "天气预报": 522, "学到": 523, "美食": 524, "明天": 525, "成为": 526, "观点": 527, "照顾": 528, "链": 529, "写作": 530, "听": 531, "一种": 532, "温暖": 533, "旅行": 534, "确定": 535, "专注": 536, "实习": 537, "简历": 538, "非洲": 539, "时段": 540, "自信": 541, "健康": 542, "每日": 543, "函数": 544, "狗": 545, "恢复": 546, "组成": 547, "告诉": 548, "检查": 549, "吧": 550, "调料": 551, "智慧": 552, "结果": 553, "恒星": 554, "由": 555, "清洁": 556, "云": 557, "强度": 558, "翻炒": 559, "注意安全": 560, "负责": 561, "总结": 562, "他": 563, "改善": 564, "太阳": 565, "太短": 566, "法": 567, "围绕": 568, "一步到位": 569, "观众": 570, "解决方案": 571, "路线": 572, "月": 573, "产品": 574, "统一": 575, "连接": 576, "孤独": 577, ".": 578, "来自": 579, "经历": 580, "例子": 581, "错题": 582, "北京": 583, "冲突": 584, "住": 585, "高兴": 586, "公开": 587, "冥想": 588, "成功": 589, "拉伸": 590, "打": 591, "养成": 592, "展开": 593, "食材": 594, "例题": 595, "真题": 596, "提分": 597, "模板": 598, "忽视": 599, "每次": 600, "名将": 601, "手机号": 602, "常问": 603, "可验证": 604, "景点": 605, "当然": 606, "它": 607, "陪": 608, "勇气": 609, "谢谢": 610, "关心": 611, "不足": 612, "迭代": 613, "比例": 614, "深度": 615, "历史": 616, "先跑通": 617, "边学边": 618, "不是": 619, "一切": 620, "不会": 621, "快": 622, "模式": 623, "爱": 624, "改变": 625, "日本": 626, "变": 627, "技能": 628, "边界": 629, "成果": 630, "数据结构": 631, "著名": 632, "操作系统": 633, "市场": 634, "健身": 635, "电影": 636, "面对": 637, "善良": 638, "信任": 639, "不好": 640, "耐心": 641, "程度": 642, "利用": 643, "现象": 644, "损伤": 645, "学科": 646, "说话": 647, "清理": 648, "充电": 649, "应用": 650, "珍惜": 651, "帮": 652, "有趣": 653, "他人": 654, "面": 655, "方案": 656, "感恩": 657, "讲": 658, "过程": 659, "申请": 660, "药": 661, "单位": 662, "算法": 663, "咨询": 664, "打击乐器": 665, "Python": 666, "这": 667, "尝试": 668, "下": 669, "篮球": 670, "美好": 671, "一次": 672, "美国": 673, "发酵": 674, "出门": 675, "多喝水": 676, "费用": 677, "金": 678, "制度": 679, "增长": 680, "战略": 681, "移动": 682, "主要": 683, "安全": 684, "自然语言": 685, "瑜伽": 686, "功能": 687, "放弃": 688, "喝": 689, "酒": 690, "法国": 691, "考试": 692, "短": 693, "方式": 694, "恐惧": 695, "平台": 696, "编程": 697, "疾病": 698, "收纳": 699, "签证": 700, "钉": 701, "任何": 702, "我会": 703, "运行": 704, "其他": 705, "足球": 706, "买": 707, "睡眠": 708, "一点": 709, "轻松": 710, "创新": 711, "一直": 712, "训练": 713, "曲子": 714, "解释": 715, "主动": 716, "倾听": 717, "专业": 718, "直接": 719, "法规": 720, "河流": 721, "宠物": 722, "杭州": 723, "引力": 724, "可视化": 725, "人工智能": 726, "事情": 727, "保暖": 728, "穿越": 729, "严重": 730, "蒸制": 731, "遇到": 732, "约": 733, "基因": 734, "报告": 735, "信念": 736, "自": 737, "平衡": 738, "发送": 739, "贷款": 740, "线": 741, "分层": 742, "每周三": 743, "五次": 744, "受伤": 745, "西亚": 746, "出现": 747, "政治": 748, "·": 749, "号": 750, "卫星": 751, "\"": 752, "流程": 753, "可能": 754, "以": 755, "兔子": 756, "着": 757, "花": 758, "力量": 759, "好看": 760, "得体": 761, "社交": 762, "认识": 763, "行": 764, "干": 765, "证明": 766, "反应": 767, "区块": 768, "计算机网络": 769, "行星": 770, "温度": 771, "意义": 772, "蜥蜴": 773, "大熊猫": 774, "南美洲": 775, "几个": 776, "羽毛球": 777, "支付": 778, "理财": 779, "只要": 780, "书": 781, "蔬菜": 782, "重庆": 783, "场所": 784, "生气": 785, "做饭": 786, "比较": 787, "动力": 788, "受害者": 789, "命运": 790, "短暂": 791, "输出": 792, "最高": 793, "炎症": 794, "当": 795, "智能": 796, "演讲": 797, "空间": 798, "教师": 799, "银行": 800, "不错": 801, "积极": 802, "感受": 803, "规划": 804, "现实": 805, "观察": 806, "决断力": 807, "网络": 808, "原因": 809, "规范": 810, "谈判": 811, "基金": 812, "技巧": 813, "天体": 814, "死": 815, "这是": 816, "他们": 817, "您": 818, "发生": 819, "季节": 820, "聪明": 821, "树": 822, "三到": 823, "已经": 824, "无聊": 825, "打动": 826, "反复": 827, "律师": 828, "没": 829, "开启": 830, "拍照": 831, "方向": 832, "怎么样": 833, "真诚": 834, "陪伴": 835, "切块": 836, "番茄": 837, "汤": 838, "煮": 839, "认知": 840, "的话": 841, "明白": 842, "忙": 843, "坚强": 844, "自我": 845, "背景": 846, "进入": 847, "协议": 848, "基本": 849, "有限": 850, "数据库": 851, "情况": 852, "发明": 853, "西安": 854, "电能": 855, "绑定": 856, "枝条": 857, "查询": 858, "端": 859, "职业": 860, "科学": 861, "起来": 862, "创造力": 863, "果实": 864, "迷茫": 865, "放": 866, "清楚": 867, "实现": 868, "艺术": 869, "责任": 870, "向": 871, "伟大": 872, "数据分析": 873, "蛋白质": 874, "标签": 875, "数学": 876, "发电": 877, "今年": 878, "工程": 879, "梦想": 880, "没关系": 881, "特有": 882, "有效": 883, "人心": 884, "吉他": 885, "宝": 886, "害怕": 887, "交": 888, "定义": 889, "相信": 890, "鸡蛋": 891, "米饭": 892, "方便": 893, "分享": 894, "探索": 895, "坚定": 896, "错误": 897, "突然": 898, "当地": 899, "股票": 900, "机构": 901, "注意力": 902, "输入": 903, "信息安全": 904, "软件工程": 905, "城市": 906, "用品": 907, "连续": 908, "仪器": 909, "因果": 910, "种子": 911, "证据": 912, "芽": 913, "英语": 914, "格斗": 915, "证件": 916, "启发": 917, "情感": 918, "无": 919, "仓鼠": 920, "抓": 921, "搬家": 922, "设计师": 923, "表演": 924, "电": 925, "升级": 926, "记账": 927, "稳定情绪": 928, "别": 929, "困难": 930, "比": 931, "优秀": 932, "独立": 933, "执行力": 934, "同理": 935, "人际关系": 936, "提供": 937, "合同": 938, "权利": 939, "文字": 940, "放到": 941, "收入": 942, "还款": 943, "Java": 944, "波长": 945, "大气": 946, "发育": 947, "鞋子": 948, "缺乏": 949, "个人": 950, "海洋": 951, "鹦鹉": 952, "大约": 953, "安全感": 954, "展示": 955, "文件": 956, "之一": 957, "擦": 958, "该": 959, "哪": 960, "商品": 961, "发": 962, "理想": 963, "来源": 964, "有无": 965, "多个": 966, "企业": 967, "转换": 968, "包": 969, "框架": 970, "起": 971, "两个": 972, "分子": 973, "DNA": 974, "药物": 975, "学生": 976, "洗掉": 977, "拨": 978, "立体": 979, "应急": 980, "广州": 981, "深圳": 982, "武汉": 983, "创作": 984, "弦乐器": 985, "生长": 986, "APP": 987, "归纳": 988, "北方": 989, "打卡": 990, "澳大利亚": 991, "刺猬": 992, "位置": 993, "尤": 994, "克里": 995, "网球": 996, "露营": 997, "备份": 998, "存储": 999, "记得": 1000, "一些": 1001, "做事": 1002, "直播": 1003, "合作": 1004, "不变": 1005, "独特": 1006, "竞争": 1007, "自动化": 1008, "认真负责": 1009, "审计": 1010, "月亮": 1011, "集合": 1012, "泰国": 1013, "德国": 1014, "三": 1015, "微生物": 1016, "调": 1017, "数": 1018, "固体": 1019, "语法": 1020, "像": 1021, "小型": 1022, "乌龟": 1023, "皮肤": 1024, "土壤": 1025, "满足": 1026, "热": 1027, "排队": 1028, "几周": 1029, "变现": 1030, "二胡": 1031, "大方": 1032, "家人": 1033, "可乐": 1034, "鸡翅": 1035, "轻微": 1036, "生病": 1037, "坐": 1038, "眼睛": 1039, "复习": 1040, "决策": 1041, "感是": 1042, "特征": 1043, "中心": 1044, "要点": 1045, "难点": 1046, "门槛": 1047, "最有": 1048, "时间段": 1049, "正反馈": 1050, "因人而异": 1051, "调味": 1052, "成本": 1053, "资产": 1054, "股市": 1055, "公积金": 1056, "储蓄": 1057, "成型": 1058, "少量": 1059, "先看": 1060, "弄清": 1061, "：": 1062, "先列": 1063, "变形": 1064, "高频": 1065, "C++": 1066, "适时": 1067, "针对": 1068, "薄弱点": 1069, "盲目": 1070, "金鱼": 1071, "够用": 1072, "东南亚": 1073, "意大利": 1074, "疼": 1075, "不适": 1076, "暂停": 1077, "下来": 1078, "南京": 1079, "各地": 1080, "有机物": 1081, "分解": 1082, "精": 1083, "先学": 1084, "立刻": 1085, "进度": 1086, "除": 1087, "预留": 1088, "HAL": 1089, "长大": 1090, "Git": 1091, "忽略": 1092, "五天": 1093, "多样": 1094, "先选": 1095, "省心": 1096, "衣物": 1097, "表示": 1098, "科研人员": 1099, "正式": 1100, "通知": 1101, "一部": 1102, "担心": 1103, "记忆": 1104, "态度": 1105, "红烧肉": 1106, "拌匀": 1107, "失败": 1108, "一": 1109, "难过": 1110, "领导力": 1111, "自律": 1112, "规则": 1113, "每个": 1114, "媒体": 1115, "大量": 1116, "面皮": 1117, "于": 1118, "英国": 1119, "传播": 1120, "者": 1121, "暗物质": 1122, "日常": 1123, "算": 1124, "档次": 1125, "上海": 1126, "坑": 1127, "成都": 1128, "数字": 1129, "一天": 1130, "Linux": 1131, "哺乳动物": 1132, "肉": 1133, "大型": 1134, "优秀作品": 1135, "个人风格": 1136, "交付": 1137, "节拍器": 1138, "慢练": 1139, "分段": 1140, "古筝": 1141, "适当": 1142, "经理": 1143, "工程师": 1144, "时尚": 1145, "运动服": 1146, "棒球": 1147, "扫描": 1148, "更新": 1149, "屏幕": 1150, "定位": 1151, "礼物": 1152, "沮丧": 1153, "拖延": 1154, "不安": 1155, "文明": 1156, "豆腐": 1157, "制": 1158, "长": 1159, "冷": 1160, "审美": 1161, "时读": 1162, "伤心": 1163, "对方": 1164, "联系": 1165, "心态": 1166, "使命感": 1167, "悲伤": 1168, "导致": 1169, "限制": 1170, "无法": 1171, "仲裁": 1172, "打印": 1173, "从小": 1174, "不清": 1175, "权益": 1176, "内": 1177, "情节": 1178, "引": 1179, "读后": 1180, "承认": 1181, "面粉": 1182, "加盐": 1183, "透彻": 1184, "推导": 1185, "图解": 1186, "香": 1187, "火候": 1188, "新鲜度": 1189, "入味": 1190, "扎实": 1191, "易错": 1192, "答题": 1193, "更准": 1194, "对应": 1195, "拿分": 1196, "抓住": 1197, "考点": 1198, "短期内": 1199, "短时": 1200, "突击": 1201, "逐步提高": 1202, "错": 1203, "常错": 1204, "审题": 1205, "混用": 1206, "省略": 1207, "作答": 1208, "DevOps": 1209, "较": 1210, "剧情片": 1211, "探讨": 1212, "补齐": 1213, "专项": 1214, "本": 1215, "必备": 1216, "好养": 1217, "症状": 1218, "用药": 1219, "技法": 1220, "先练": 1221, "名山": 1222, "佛教": 1223, "水分": 1224, "几组": 1225, "加重": 1226, "经常": 1227, "帝王": 1228, "蜀汉": 1229, "星系": 1230, "望远镜": 1231, "液体": 1232, "第二天": 1233, "极小": 1234, "已有": 1235, "天数": 1236, "麻烦": 1237, "健康检查": 1238, "记更牢": 1239, "素材": 1240, "批改": 1241, "取舍": 1242, "完成率": 1243, "刻意": 1244, "看会": 1245, "餐饮": 1246, "门票": 1247, "留点": 1248, "促进": 1249, "边尝边": 1250, "语音": 1251, "前要": 1252, "时会": 1253, "顺畅": 1254, "论文": 1255, "知识点": 1256, "坑有": 1257, "复制粘贴": 1258, "不写": 1259, "不高": 1260, "动手": 1261, "养老": 1262, "滑行": 1263, "结构化": 1264, "专业技能": 1265, "地理": 1266, "词汇": 1267, "章节": 1268, "留": 1269, "筛选": 1270, "两三个": 1271, "准备充分": 1272, "几天": 1273, "从容": 1274, "备用": 1275, "治安": 1276, "消费水平": 1277, "两三天": 1278, "备好": 1279, "地道": 1280, "小吃": 1281, "本地": 1282, "社群": 1283, "模块": 1284, "整体规划": 1285, "自动": 1286, "想法": 1287, "活着": 1288, "对不起": 1289, "飞": 1290, "发光": 1291, "钢琴": 1292, "攀岩": 1293, "翻译": 1294, "内心": 1295, "教育": 1296, "未来": 1297, "问": 1298, "酸菜鱼": 1299, "加水": 1300, "年": 1301, "治疗": 1302, "啦": 1303, "互联网": 1304, "干净": 1305, "距离": 1306, "公正": 1307, "保证": 1308, "光明": 1309, "愤怒": 1310, "当下": 1311, "资金": 1312, "政府": 1313, "星星": 1314, "相同": 1315, "体能": 1316, "骑行": 1317, "岛国": 1318, "物体": 1319, "远离": 1320, "南方": 1321, "方面": 1322, "气体": 1323, "听力": 1324, "弓弦乐器": 1325, "向上": 1326, "清单": 1327, "笑": 1328, "变得": 1329, "什么样": 1330, "出来": 1331, "昆虫": 1332, "亚洲": 1333, "站": 1334, "清晰": 1335, "记者": 1336, "节目": 1337, "排球": 1338, "完成": 1339, "成就感": 1340, "正常": 1341, "时光": 1342, "文学": 1343, "感情": 1344, "焯": 1345, "糖醋排骨": 1346, "排骨": 1347, "鱼片": 1348, "煎": 1349, "酸辣": 1350, "土豆丝": 1351, "蛋炒饭": 1352, "一年": 1353, "酿造": 1354, "呀": 1355, "骑车": 1356, "打球": 1357, "出": 1358, "网上": 1359, "公平": 1360, "营养": 1361, "正面": 1362, "谦虚": 1363, "毅力": 1364, "冒险": 1365, "执着": 1366, "危险": 1367, "差": 1368, "绿色": 1369, "协调": 1370, "修改": 1371, "转移": 1372, "强大": 1373, "建设": 1374, "精力": 1375, "货币": 1376, "超过": 1377, "感到": 1378, "关于": 1379, "红": 1380, "适量": 1381, "放馅": 1382, "跳绳": 1383, "Web": 1384, "瀑布": 1385, "体内": 1386, "激素": 1387, "辐射": 1388, "易怒": 1389, "左右": 1390, "军事": 1391, "作用": 1392, "长官": 1393, "周朝": 1394, "电磁波": 1395, "设备": 1396, "成": 1397, "办理": 1398, "邮箱": 1399, "加号": 1400, "气候": 1401, "Obsidian": 1402, "术": 1403, "语文": 1404, "搜索引擎": 1405, "预警": 1406, "构建": 1407, "思维": 1408, "那": 1409, "类型": 1410, "蚂蚁": 1411, "珍贵": 1412, "领导": 1413, "特殊": 1414, "唱歌": 1415, "长笛": 1416, "比赛": 1417, "垃圾": 1418, "大小": 1419, "乐观": 1420, "梦": 1421, "不断": 1422, "回忆": 1423, "人民": 1424, "宫保鸡": 1425, "安慰": 1426, "太": 1427, "厉害": 1428, "拒绝": 1429, "发现": 1430, "智能化": 1431, "做出": 1432, "期待": 1433, "财务": 1434, "麻辣": 1435, "香锅": 1436, "段位": 1437, "龙猫": 1438, "异常": 1439, "爆炸": 1440, "尽快": 1441, "电子": 1442, "辅助": 1443, "订单": 1444, "印象": 1445, "滴答": 1446, "Docker": 1447, "视觉": 1448, "徒步": 1449, "写作能力": 1450, "认为": 1451, "'": 1452, "创建": 1453, "暂时": 1454, "善于": 1455, "跑": 1456, "数量": 1457, "睡": 1458, "大象": 1459, "舒服": 1460, "肌肉": 1461, "下雨": 1462, "聚餐": 1463, "换": 1464, "承诺": 1465, "代表": 1466, "啊": 1467, "继续": 1468, "同时": 1469, "这个": 1470, "五花肉": 1471, "炒蛋": 1472, "多种": 1473, "食品": 1474, "茶": 1475, "祝": 1476, "不好意思": 1477, "请问": 1478, "附近": 1479, "借钱": 1480, "开车": 1481, "刺激": 1482, "尽量": 1483, "菜": 1484, "消息": 1485, "收获": 1486, "培养": 1487, "决心": 1488, "满足感": 1489, "精进": 1490, "道理": 1491, "自然": 1492, "周围": 1493, "突出": 1494, "保留": 1495, "踏实": 1496, "认真": 1497, "用心": 1498, "操作": 1499, "财务报表": 1500, "过去": 1501, "疯": 1502, "日落": 1503, "演奏": 1504, "表面": 1505, "清蒸": 1506, "鲈鱼": 1507, "向量": 1508, "诗词": 1509, "山脉": 1510, "平行": 1511, "新加坡": 1512, "中欧": 1513, "东南欧": 1514, "加拿大": 1515, "响应": 1516, "创伤": 1517, "抗压": 1518, "战争": 1519, "学校": 1520, "科举考试": 1521, "行政": 1522, "官职": 1523, "土地": 1524, "创始人": 1525, "晚清": 1526, "名臣": 1527, "星云": 1528, "医疗": 1529, "太空": 1530, "月球": 1531, "搓洗": 1532, "根": 1533, "水蒸气": 1534, "发货": 1535, "幕布": 1536, "条例": 1537, "自行车": 1538, "拳术": 1539, "项目管理": 1540, "晋升": 1541, "受到": 1542, "所以": 1543, "模拟": 1544, "程序": 1545, "真实": 1546, "现在": 1547, "吸引": 1548, "小提琴": 1549, "萨克斯": 1550, "家庭": 1551, "钓鱼": 1552, "射击": 1553, "滑冰": 1554, "隐私": 1555, "加速": 1556, "特别": 1557, "好事": 1558, "歌": 1559, "感谢": 1560, "矛盾": 1561, "动摇": 1562, "丁": 1563, "最长": 1564, "爬山": 1565, "取": 1566, "疼痛": 1567, "验证": 1568, "作业": 1569, "冷静": 1570, "表达能力": 1571, "传递": 1572, "解决问题": 1573, "大家": 1574, "共同": 1575, "同意": 1576, "通风": 1577, "合规": 1578, "疲惫": 1579, "混合": 1580, "稳妥": 1581, "欧洲": 1582, "嗨": 1583, "心理": 1584, "学术": 1585, "分类": 1586, "税务": 1587, "Notion": 1588, "OneNote": 1589, "网页": 1590, "职业规划": 1591, "克隆": 1592, "走": 1593, "正在": 1594, "我能": 1595, "这里": 1596, "猫科动物": 1597, "北极熊": 1598, "强": 1599, "春天": 1600, "克": 1601, "进化": 1602, "标记": 1603, "寻找": 1604, "架子鼓": 1605, "绘画": 1606, "感兴趣": 1607, "夏天": 1608, "不怕": 1609, "太极": 1610, "雪车": 1611, "驱动": 1612, "买个": 1613, "有空": 1614, "释放": 1615, "失落": 1616, "果断": 1617, "看法": 1618, "一定": 1619, "互相": 1620, "包容": 1621, "约定": 1622, "水加": 1623, "鸡": 1624, "烤制": 1625, "农历": 1626, "情人节": 1627, "一日": 1628, "茶叶": 1629, "花钱": 1630, "均衡": 1631, "为主": 1632, "适应": 1633, "实力": 1634, "细心": 1635, "才华": 1636, "魄力": 1637, "建设性": 1638, "责任感": 1639, "紧迫感": 1640, "节奏感": 1641, "归属感": 1642, "幸福感": 1643, "参与感": 1644, "仪式": 1645, "宿命": 1646, "敬畏": 1647, "平常心": 1648, "勇猛": 1649, "无畏": 1650, "深": 1651, "事实": 1652, "衡量": 1653, "人工": 1654, "低": 1655, "吸收": 1656, "勤奋": 1657, "刻苦": 1658, "页面": 1659, "结论": 1660, "一步": 1661, "利率": 1662, "价格": 1663, "央行": 1664, "特定": 1665, "汽车": 1666, "金融": 1667, "作为": 1668, "日出": 1669, "生": 1670, "永恒": 1671, "劲": 1672, "式": 1673, "虚拟": 1674, "万事如意": 1675, "巴西": 1676, "区域": 1677, "北美洲": 1678, "感冒": 1679, "障碍": 1680, "涂": 1681, "造纸术": 1682, "官员": 1683, "劳动": 1684, "穿过": 1685, "志向": 1686, "原子": 1687, "探测器": 1688, "量子": 1689, "识别": 1690, "跳槽": 1691, "出行": 1692, "运输": 1693, "补办": 1694, "出入境": 1695, "象形": 1696, "口语": 1697, "调查": 1698, "绩效考核": 1699, "商业模式": 1700, "加薪": 1701, "所有": 1702, "来说": 1703, "爱好": 1704, "得": 1705, "每": 1706, "鸟": 1707, "星际": 1708, "贝斯": 1709, "秋天": 1710, "宴请": 1711, "乒乓球": 1712, "散步": 1713, "牵挂": 1714, "利弊": 1715, "绝望": 1716, "浇": 1717, "米": 1718, "排骨汤": 1719, "热水": 1720, "护肤": 1721, "共享": 1722, "认可": 1723, "嫉妒": 1724, "平等": 1725, "痛苦": 1726, "想要": 1727, "达到": 1728, "交易": 1729, "环保": 1730, "生态": 1731, "第三方": 1732, "借贷": 1733, "社保": 1734, "住房": 1735, "消费": 1736, "每月": 1737, "明月": 1738, "话": 1739, "笑话": 1740, "维生素": 1741, "加热": 1742, "重复": 1743, "体力": 1744, "热带雨林": 1745, "南亚": 1746, "一举两得": 1747, "完全": 1748, "膨胀": 1749, "量子力学": 1750, "地震": 1751, "请教": 1752, "请求": 1753, "课题": 1754, "石墨": 1755, "服务器": 1756, "黑客": 1757, "竞品": 1758, "职业倦怠": 1759, "装置": 1760, "完美": 1761, "销售": 1762, "水中": 1763, "柔软": 1764, "食肉动物": 1765, "地面": 1766, "简单": 1767, "猎豹": 1768, "小时": 1769, "三百": 1770, "公里": 1771, "几分钟": 1772, "冬天": 1773, "舞蹈": 1774, "射箭": 1775, "越野": 1776, "检查一下": 1777, "音量": 1778, "关闭": 1779, "电池": 1780, "密码": 1781, "拍": 1782, "公园": 1783, "看看": 1784, "又": 1785, "创业": 1786, "诚实": 1787, "意外": 1788, "新闻": 1789, "意思": 1790, "盐": 1791, "加水煮": 1792, "哲学": 1793, "红包": 1794, "豆浆": 1795, "帮到": 1796, "带伞": 1797, "哦": 1798, "女": 1799, "退缩": 1800, "累": 1801, "饿": 1802, "出去": 1803, "洗衣服": 1804, "种花": 1805, "很大": 1806, "收": 1807, "体检": 1808, "疫苗": 1809, "紫外线": 1810, "血液": 1811, "唱": 1812, "热情": 1813, "担当": 1814, "有远见": 1815, "有恒心": 1816, "想象力": 1817, "判断力": 1818, "适应力": 1819, "韧性": 1820, "弹性": 1821, "变通": 1822, "人际": 1823, "拼搏": 1824, "进取": 1825, "慈悲心": 1826, "清净": 1827, "欢喜": 1828, "分别": 1829, "初心": 1830, "失去": 1831, "供给": 1832, "降低": 1833, "数字化": 1834, "代替": 1835, "排放": 1836, "国际": 1837, "双方": 1838, "提出": 1839, "鼓励": 1840, "取消": 1841, "了不起": 1842, "稳重": 1843, "谱": 1844, "胆识": 1845, "影响力": 1846, "表达力": 1847, "还好": 1848, "贷": 1849, "付款": 1850, "辛苦": 1851, "彩虹": 1852, "感动": 1853, "打开": 1854, "三次": 1855, "粉丝": 1856, "表情": 1857, "参与": 1858, "节": 1859, "平安": 1860, "岁": 1861, "纤维": 1862, "对折": 1863, "捏": 1864, "皮包": 1865, "制成": 1866, "食材放": 1867, "遗传": 1868, "第二": 1869, "内陆国": 1870, "关节": 1871, "聚焦": 1872, "停训": 1873, "冷水": 1874, "时期": 1875, "丝绸之路": 1876, "石窟": 1877, "修建": 1878, "江南": 1879, "大名": 1880, "楼": 1881, "清朝": 1882, "商朝": 1883, "作者": 1884, "词人": 1885, "首都": 1886, "三维": 1887, "外层": 1888, "物种": 1889, "伤口": 1890, "器官": 1891, "方程": 1892, "环": 1893, "育种": 1894, "孩子": 1895, "法医": 1896, "值": 1897, "清洗": 1898, "白醋": 1899, "球": 1900, "湿度": 1901, "欲": 1902, "矩阵": 1903, "角": 1904, "排列": 1905, "保险公司": 1906, "学位": 1907, "认证": 1908, "是不是": 1909, "Trello": 1910, "分析师": 1911, "转化": 1912, "部署": 1913, "品牌": 1914, "壮观": 1915, "人力资源": 1916, "互动": 1917, "策划": 1918, "顾问": 1919, "家电": 1920, "作文": 1921, "公众": 1922, "转岗": 1923, "职场": 1924, "复制": 1925, "愿望": 1926, "生命": 1927, "会飞": 1928, "只有": 1929, "达": 1930, "滑雪服": 1931, "冰球": 1932, "试试": 1933, "收到": 1934, "瞬间": 1935, "无助": 1936, "创造": 1937, "早上好": 1938, "水果": 1939, "好好": 1940, "满满": 1941, "忘记": 1942, "没什么": 1943, "在家": 1944, "牛奶": 1945, "回来": 1946, "赞美": 1947, "批评": 1948, "漂亮": 1949, "温柔": 1950, "魅力": 1951, "有时": 1952, "下降": 1953, "化": 1954, "国内": 1955, "法院": 1956, "总": 1957, "分配": 1958, "本金": 1959, "非": 1960, "支出": 1961, "恭喜": 1962, "依赖": 1963, "天空": 1964, "已": 1965, "导数": 1966, "湖泊": 1967, "太平洋": 1968, "作息": 1969, "调节": 1970, "坏": 1971, "矮": 1972, "弦": 1973, "分散": 1974, "挂号": 1975, "量": 1976, "枪": 1977, "店": 1978, "租房": 1979, "交管": 1980, "（": 1981, "）": 1982, "前端": 1983, "前端开发": 1984, "加密": 1985, "强化": 1986, "市场营销": 1987, "养护": 1988, "一只": 1989, "出生": 1990, "真的": 1991, "娱乐": 1992, "爬行动物": 1993, "两栖动物": 1994, "独居": 1995, "捕食": 1996, "热带": 1997, "蜜蜂": 1998, "高原": 1999, "储存": 2000, "狼": 2001, "老虎": 2002, "优雅": 2003, "森林": 2004, "冬眠": 2005, "灭绝": 2006, "一样": 2007, "耳朵": 2008, "分布": 2009, "品种": 2010, "蹭": 2011, "是因为": 2012, "跳舞": 2013, "摄影": 2014, "正装": 2015, "聚会": 2016, "女性": 2017, "手工": 2018, "户外": 2019, "击剑": 2020, "举重": 2021, "雪橇": 2022, "冬季两项": 2023, "慢": 2024, "修复": 2025, "指纹": 2026, "查看": 2027, "幸运": 2028, "表扬": 2029, "新气象": 2030, "照片": 2031, "很棒": 2032, "优点": 2033, "以身作则": 2034, "传承": 2035, "画": 2036, "程序员": 2037, "金黄": 2038, "豆瓣酱": 2039, "花生": 2040, "木耳": 2041, "切片": 2042, "土豆": 2043, "南瓜": 2044, "新年": 2045, "十五": 2046, "结束": 2047, "乐器": 2048, "香料": 2049, "绿茶": 2050, "红楼梦": 2051, "小王子": 2052, "三体": 2053, "围城": 2054, "哭": 2055, "心里": 2056, "付出": 2057, "知己": 2058, "好玩": 2059, "或者": 2060, "早起": 2061, "房间": 2062, "治愈": 2063, "满意": 2064, "评论": 2065, "搭配": 2066, "便宜": 2067, "骑": 2068, "可爱": 2069, "演出": 2070, "加油": 2071, "血压": 2072, "晚上": 2073, "半小时": 2074, "见": 2075, "按时": 2076, "挑战": 2077, "骄傲": 2078, "寂寞": 2079, "崇拜": 2080, "气质": 2081, "本事": 2082, "潜力": 2083, "前途": 2084, "前进": 2085, "洞察力": 2086, "恢复力": 2087, "灵活性": 2088, "团队精神": 2089, "工匠": 2090, "创造性": 2091, "积极性": 2092, "危机感": 2093, "重视": 2094, "同情心": 2095, "怜悯": 2096, "包容心": 2097, "宽容": 2098, "忍耐": 2099, "菩提": 2100, "动心": 2101, "挂碍": 2102, "解脱": 2103, "恒久": 2104, "退心": 2105, "不屈": 2106, "不挠": 2107, "妥协": 2108, "屈服": 2109, "畏惧": 2110, "不忘心": 2111, "不忘本": 2112, "正": 2113, "某事": 2114, "相处": 2115, "重点": 2116, "变革": 2117, "向前": 2118, "差异化": 2119, "改造": 2120, "二氧化碳": 2121, "肯定": 2122, "信心": 2123, "价值观": 2124, "全面": 2125, "最小": 2126, "发行": 2127, "指数": 2128, "跟踪": 2129, "以上": 2130, "所得税": 2131, "社会保险": 2132, "支付宝": 2133, "失望": 2134, "恨": 2135, "道": 2136, "百年孤独": 2137, "肩膀": 2138, "制造": 2139, "偶像": 2140, "流量": 2141, "重逢": 2142, "新年好": 2143, "老师": 2144, "脂肪": 2145, "蓝莓": 2146, "过量": 2147, "擀": 2148, "馅": 2149, "心理学": 2150, "温差": 2151, "群岛": 2152, "海": 2153, "五岳": 2154, "大国": 2155, "山国": 2156, "西欧": 2157, "中亚": 2158, "婆娘": 2159, "打扰": 2160, "失眠": 2161, "旋转": 2162, "光线": 2163, "高温": 2164, "过多": 2165, "自身": 2166, "低头": 2167, "增强": 2168, "每周": 2169, "十到": 2170, "二十分钟": 2171, "秦朝": 2172, "古塔": 2173, "唐朝": 2174, "明朝": 2175, "奠基者": 2176, "丞相": 2177, "魏国": 2178, "吴国": 2179, "文学家": 2180, "星体": 2181, "网": 2182, "火山": 2183, "风": 2184, "风力": 2185, "分离": 2186, "混合物": 2187, "戴": 2188, "抗体": 2189, "免疫系统": 2190, "部分": 2191, "频率": 2192, "原理": 2193, "土星": 2194, "星团": 2195, "反射": 2196, "变星": 2197, "绕": 2198, "保存": 2199, "犯罪": 2200, "振动": 2201, "有害": 2202, "浇水": 2203, "专用": 2204, "预约": 2205, "覆盖": 2206, "小苏打": 2207, "存放": 2208, "才": 2209, "形状": 2210, "相等": 2211, "溶液": 2212, "溶解": 2213, "发声": 2214, "乐曲": 2215, "木管乐器": 2216, "铜管乐器": 2217, "传粉": 2218, "胚乳": 2219, "个人信息": 2220, "备注": 2221, "车管所": 2222, "管理局": 2223, "颜色": 2224, "凝结": 2225, "下单": 2226, "SQL": 2227, "环境保护": 2228, "争议": 2229, "管理条例": 2230, "网络安全": 2231, "农业": 2232, "商业": 2233, "措施": 2234, "两人": 2235, "拳": 2236, "容器": 2237, "集成": 2238, "HTTP": 2239, "野餐": 2240, "放风筝": 2241, "赏花": 2242, "汇报": 2243, "营销": 2244, "地区": 2245, "睡觉": 2246, "谈论": 2247, "商务": 2248, "速度": 2249, "办公": 2250, "太好了": 2251, "聊聊": 2252, "没事": 2253, "纠结": 2254, "跟着": 2255, "坚持下去": 2256, "和平": 2257, "风景": 2258, "炒": 2259, "肉末": 2260, "鸭": 2261, "慢炖": 2262, "牛肉": 2263, "玉米": 2264, "气功": 2265, "布": 2266, "今天天气": 2267, "叫": 2268, "嗯": 2269, "方": 2270, "存钱": 2271, "离": 2272, "客户": 2273, "胜利": 2274, "幽默": 2275, "内在": 2276, "抗": 2277, "推动": 2278, "真理": 2279, "标准": 2280, "目的": 2281, "理由": 2282, "退步": 2283, "逐渐": 2284, "调解": 2285, "赔偿": 2286, "消费者": 2287, "利息": 2288, "收益": 2289, "征信": 2290, "负债": 2291, "增值税": 2292, "财产": 2293, "有人": 2294, "总是": 2295, "等待": 2296, "喜悦": 2297, "明星": 2298, "种草": 2299, "图片": 2300, "夹": 2301, "氪": 2302, "carry": 2303, "印度洋": 2304, "地中海": 2305, "最多": 2306, "低温": 2307, "获取": 2308, "冲洗": 2309, "第一个": 2310, "所": 2311, "周期性": 2312, "基本粒子": 2313, "零": 2314, "太阳能": 2315, "杀灭": 2316, "细菌": 2317, "病毒": 2318, "燃烧": 2319, "极光": 2320, "对称": 2321, "微": 2322, "热量": 2323, "提取": 2324, "节能": 2325, "策略": 2326, "热力学": 2327, "吹奏乐器": 2328, "花序": 2329, "义务": 2330, "一举": 2331, "不怎么": 2332, "散射": 2333, "判决": 2334, "两队": 2335, "冰上": 2336, "赛车": 2337, "通信": 2338, "古文": 2339, "名字": 2340, "超级": 2341, "意志": 2342, "各种": 2343, "也许": 2344, "腿": 2345, "繁殖": 2346, "拥有": 2347, "节肢动物": 2348, "软体动物": 2349, "棘皮动物": 2350, "体温": 2351, "群居动物": 2352, "猛禽": 2353, "海边": 2354, "珊瑚礁": 2355, "蝴蝶": 2356, "虾": 2357, "透明": 2358, "金丝猴": 2359, "珍稀": 2360, "企鹅": 2361, "南极": 2362, "啮齿动物": 2363, "狮子": 2364, "后代": 2365, "猪": 2366, "白色": 2367, "寿命": 2368, "长颈鹿": 2369, "记忆力": 2370, "交流": 2371, "亲近": 2372, "重物": 2373, "每秒": 2374, "视频剪辑": 2375, "盗梦": 2376, "才能": 2377, "千与千寻": 2378, "疯狂": 2379, "肖申克": 2380, "救赎": 2381, "兴趣": 2382, "便于": 2383, "音乐会": 2384, "节日": 2385, "浪漫": 2386, "毕业": 2387, "高尔夫": 2388, "登山": 2389, "骑马": 2390, "摔跤": 2391, "跳台": 2392, "重启": 2393, "还原": 2394, "充电器": 2395, "后台": 2396, "缓存": 2397, "同步": 2398, "外卖": 2399, "购物": 2400, "过得": 2401, "慢慢来": 2402, "消极": 2403, "平静": 2404, "身体健康": 2405, "期望": 2406, "惊喜": 2407, "离开": 2408, "性格": 2409, "挺": 2410, "复杂": 2411, "海鲜": 2412, "友谊": 2413, "鸡肉": 2414, "蒸": 2415, "炸至": 2416, "辣椒": 2417, "蒜蓉": 2418, "黄瓜": 2419, "醋": 2420, "酱油": 2421, "皮蛋": 2422, "加汤": 2423, "焖": 2424, "粥": 2425, "红薯": 2426, "萝卜": 2427, "冬瓜": 2428, "五月": 2429, "粽子": 2430, "元宵节": 2431, "十二月": 2432, "西方": 2433, "下雪": 2434, "符号": 2435, "中医": 2436, "针灸": 2437, "吉祥": 2438, "早餐": 2439, "花朵": 2440, "茶具": 2441, "蒸馏": 2442, "葡萄": 2443, "讨厌": 2444, "走走": 2445, "几点": 2446, "帮忙": 2447, "困": 2448, "记住": 2449, "天": 2450, "手表": 2451, "周末": 2452, "迟到": 2453, "综艺": 2454, "动漫": 2455, "播客": 2456, "退货": 2457, "好评": 2458, "朋友圈": 2459, "心意": 2460, "反思": 2461, "按摩": 2462, "泡脚": 2463, "头发": 2464, "很快": 2465, "动物园": 2466, "博物馆": 2467, "美术馆": 2468, "图书馆": 2469, "花园": 2470, "宝贝": 2471, "刮痧": 2472, "超声波": 2473, "心脏": 2474, "消化": 2475, "血糖": 2476, "面包": 2477, "预习": 2478, "背": 2479, "邮件": 2480, "送": 2481, "身边": 2482, "无力感": 2483, "可控": 2484, "找回": 2485, "夸奖": 2486, "重": 2487, "奋斗": 2488, "上进心": 2489, "好奇心": 2490, "有创造力": 2491, "应对": 2492, "奉献精神": 2493, "敬业精神": 2494, "拼搏精神": 2495, "进取精神": 2496, "主动性": 2497, "有分寸": 2498, "关爱": 2499, "觉悟": 2500, "忘": 2501, "做人": 2502, "总会": 2503, "身心": 2504, "对待": 2505, "成见": 2506, "误会": 2507, "开悟": 2508, "人格": 2509, "因素": 2510, "衰退": 2511, "繁荣": 2512, "复苏": 2513, "增加": 2514, "性质": 2515, "某个": 2516, "全球": 2517, "循环": 2518, "碳": 2519, "侧": 2520, "双循环": 2521, "和谐": 2522, "纠纷": 2523, "投诉": 2524, "担保": 2525, "违约": 2526, "补偿": 2527, "金额": 2528, "前": 2529, "援助": 2530, "正义": 2531, "出色": 2532, "感召力": 2533, "亲和力": 2534, "说服力": 2535, "感染力": 2536, "理解力": 2537, "创新力": 2538, "编辑": 2539, "搜索": 2540, "下载": 2541, "收纳盒": 2542, "坐姿": 2543, "支撑": 2544, "收回": 2545, "债券": 2546, "投放": 2547, "减": 2548, "库存": 2549, "在线": 2550, "微信": 2551, "抱抱": 2552, "委屈": 2553, "这样": 2554, "别太": 2555, "家": 2556, "佩服": 2557, "心疼": 2558, "人们": 2559, "想象": 2560, "阳光": 2561, "四季": 2562, "着急": 2563, "心想事成": 2564, "制作": 2565, "人才": 2566, "元": 2567, "颜值": 2568, "遗憾": 2569, "安康": 2570, "喜乐": 2571, "吉祥如意": 2572, "财源": 2573, "广进": 2574, "西瓜": 2575, "碳水化合物": 2576, "膳食": 2577, "咖啡": 2578, "擀开": 2579, "磨碎": 2580, "晾干": 2581, "水泡": 2582, "电磁学": 2583, "热学": 2584, "光学": 2585, "力学": 2586, "愿景": 2587, "指环王": 2588, "作家": 2589, "穿衣": 2590, "兼顾": 2591, "室内外": 2592, "争取": 2593, "定期检查": 2594, "峡谷": 2595, "最南端": 2596, "大洋": 2597, "高加索": 2598, "山": 2599, "道教": 2600, "大岛": 2601, "东亚": 2602, "以色列": 2603, "北非": 2604, "西非": 2605, "北欧": 2606, "大洋洲": 2607, "下午": 2608, "免疫力": 2609, "发烧": 2610, "过敏": 2611, "久坐": 2612, "含量": 2613, "刷牙": 2614, "海拔": 2615, "中暑": 2616, "甲状腺": 2617, "撕裂": 2618, "骨折": 2619, "扭伤": 2620, "烫伤": 2621, "良好": 2622, "推理": 2623, "判断": 2624, "气温": 2625, "小事": 2626, "十分钟": 2627, "太久": 2628, "少看": 2629, "事件": 2630, "印刷术": 2631, "火药": 2632, "指南针": 2633, "蔡伦": 2634, "贸易": 2635, "隋朝": 2636, "功名": 2637, "赋税": 2638, "宋朝": 2639, "军队": 2640, "夏朝": 2641, "汉朝": 2642, "分裂": 2643, "上古": 2644, "贤明": 2645, "儒家": 2646, "秦始皇": 2647, "华佗": 2648, "著名诗人": 2649, "台湾": 2650, "民族英雄": 2651, "中华人民共和国": 2652, "遗址": 2653, "柠檬": 2654, "受": 2655, "远大": 2656, "直径约": 2657, "极强": 2658, "中子星": 2659, "观测": 2660, "磁场": 2661, "X射线": 2662, "化学键": 2663, "化合物": 2664, "合成": 2665, "引起": 2666, "降水": 2667, "含有": 2668, "替代": 2669, "轮椅": 2670, "包扎": 2671, "酒精": 2672, "参数": 2673, "太阳系": 2674, "火星": 2675, "木星": 2676, "爆发": 2677, "流星": 2678, "柯伊伯": 2679, "星系团": 2680, "弱": 2681, "生产": 2682, "胚胎": 2683, "类似": 2684, "精准": 2685, "生育": 2686, "冷冻": 2687, "毒物": 2688, "医疗事故": 2689, "残留": 2690, "指标": 2691, "率": 2692, "样本": 2693, "现场": 2694, "投": 2695, "划船": 2696, "板": 2697, "换位": 2698, "渍": 2699, "保持清洁": 2700, "读过": 2701, "尽": 2702, "间": 2703, "组合": 2704, "积分": 2705, "直角": 2706, "边": 2707, "图形": 2708, "无机化学": 2709, "有机化学": 2710, "蒸发": 2711, "凝华": 2712, "伴奏": 2713, "人唱": 2714, "拍子": 2715, "德": 2716, "叶片": 2717, "开花": 2718, "药剂": 2719, "树木": 2720, "果皮": 2721, "GitHub": 2722, "里点": 2723, "物流": 2724, "发票": 2725, "拿": 2726, "慈善": 2727, "转": 2728, "全部": 2729, "说得对": 2730, "是非": 2731, "课": 2732, "关键词": 2733, "折射": 2734, "有风": 2735, "有雾": 2736, "挡住": 2737, "未成年人": 2738, "强制": 2739, "保全": 2740, "护理": 2741, "经费": 2742, "击球": 2743, "投掷": 2744, "太极拳": 2745, "神经网络": 2746, "物": 2747, "边缘": 2748, "传输": 2749, "IP": 2750, "天气晴朗": 2751, "看不到": 2752, "黄了": 2753, "向日葵": 2754, "架": 2755, "开题": 2756, "搭": 2757, "不朽": 2758, "形式": 2759, "另": 2760, "包含": 2761, "！": 2762, "完美无缺": 2763, "随": 2764, "迁徙": 2765, "古老": 2766, "牛": 2767, "手指": 2768, "用来": 2769, "感知": 2770, "相对": 2771, "几年": 2772, "派": 2773, "冲浪": 2774, "WiFi": 2775, "蓝牙": 2776, "图案": 2777, "壳": 2778, "电源": 2779, "窗": 2780, "一件": 2781, "回家": 2782, "听听": 2783, "振作起来": 2784, "静下心来": 2785, "犹豫": 2786, "丢人": 2787, "汁": 2788, "红油": 2789, "羊肉汤": 2790, "炒饭": 2791, "砂锅": 2792, "寒冷": 2793, "吃饭": 2794, "回答": 2795, "帮帮我": 2796, "随时": 2797, "养鱼": 2798, "遛狗": 2799, "请客": 2800, "走路": 2801, "牙齿": 2802, "美丽": 2803, "棒": 2804, "别怕": 2805, "有则改之": 2806, "无则加勉": 2807, "敬业": 2808, "途径": 2809, "修养": 2810, "偏见": 2811, "深刻理解": 2812, "修炼": 2813, "购买": 2814, "倒退": 2815, "开放": 2816, "改革": 2817, "共生": 2818, "成绩": 2819, "预期": 2820, "法治": 2821, "后悔": 2822, "常用": 2823, "物价": 2824, "进出口": 2825, "买房": 2826, "经营": 2827, "我爱你": 2828, "预测": 2829, "顺利": 2830, "歌剧": 2831, "离别": 2832, "橘子": 2833, "维持": 2834, "坚果": 2835, "能源": 2836, "搓": 2837, "油": 2838, "赤道": 2839, "大西洋": 2840, "第三": 2841, "干旱": 2842, "整个": 2843, "冻伤": 2844, "养猫": 2845, "好处": 2846, "极大": 2847, "丰富": 2848, "中子": 2849, "发射": 2850, "光合作用": 2851, "台风": 2852, "测量": 2853, "晶体": 2854, "超新星": 2855, "超": 2856, "诊断": 2857, "切菜": 2858, "日志": 2859, "骗子": 2860, "差异": 2861, "维纳斯": 2862, "打篮球": 2863, "应用程序": 2864, "敏捷": 2865, "全栈": 2866, "永生": 2867, "撒谎": 2868, "这么": 2869, "死亡": 2870, "试图": 2871, "尺码": 2872, "UNIX": 2873, "脊椎动物": 2874, "夜行": 2875, "夜间": 2876, "群体": 2877, "迁徙的鸟": 2878, "攀爬": 2879, "海豚": 2880, "鳍": 2881, "足类": 2882, "尾巴": 2883, "群居": 2884, "蜘蛛": 2885, "甲壳动物": 2886, "蜗牛": 2887, "珍稀动物": 2888, "东北虎": 2889, "藏羚羊": 2890, "青藏高原": 2891, "鳞片": 2892, "北极": 2893, "袋鼠": 2894, "考拉": 2895, "缓慢": 2896, "刺": 2897, "雪": 2898, "犬科": 2899, "最快": 2900, "马": 2901, "驴": 2902, "飞行": 2903, "竹子": 2904, "伪装": 2905, "多长": 2906, "怀孕": 2907, "野外": 2908, "几乎": 2909, "叶": 2910, "二十": 2911, "看起来": 2912, "擅长": 2913, "脖子": 2914, "鼻子": 2915, "散热": 2916, "高处": 2917, "激光": 2918, "兴奋": 2919, "胃": 2920, "尿": 2921, "水面": 2922, "自卫": 2923, "留下": 2924, "搬": 2925, "讲故事": 2926, "文案": 2927, "口": 2928, "阿甘正传": 2929, "霸王别姬": 2930, "泰坦尼克号": 2931, "楚门": 2932, "兄弟": 2933, "上班": 2934, "深色": 2935, "特色": 2936, "户外活动": 2937, "展览": 2938, "同事": 2939, "话剧": 2940, "脏": 2941, "茶艺": 2942, "拳击": 2943, "跆拳道": 2944, "空手道": 2945, "相扑": 2946, "棋类": 2947, "冰壶": 2948, "花样滑冰": 2949, "短道": 2950, "速滑": 2951, "钢架": 2952, "自由式": 2953, "单板": 2954, "有没有": 2955, "最新": 2956, "分区": 2957, "杀毒": 2958, "数据线": 2959, "满": 2960, "插入": 2961, "耳机": 2962, "补": 2963, "悬浮": 2964, "导入": 2965, "亮度": 2966, "闹钟": 2967, "日历": 2968, "地图": 2969, "打车": 2970, "路": 2971, "好吃": 2972, "美景": 2973, "好书": 2974, "充足": 2975, "发工资": 2976, "新发型": 2977, "形象": 2978, "一场": 2979, "想念": 2980, "学会": 2981, "对象": 2982, "超出": 2983, "实用": 2984, "遗产": 2985, "触动": 2986, "人性": 2987, "守信": 2988, "祝福": 2989, "还有": 2990, "糖醋": 2991, "炒香加": 2992, "热油": 2993, "酸菜": 2994, "三鲜": 2995, "茄子": 2996, "加醋": 2997, "蘸": 2998, "啤酒": 2999, "拉面": 3000, "鸡丝": 3001, "虾仁": 3002, "炒菜": 3003, "山药": 3004, "春节": 3005, "中秋节": 3006, "赏月": 3007, "月饼": 3008, "端午节": 3009, "九": 3010, "除夕": 3011, "圣诞节": 3012, "万圣节": 3013, "感恩节": 3014, "教师节": 3015, "劳动节": 3016, "青年节": 3017, "儿童节": 3018, "建军节": 3019, "愚人节": 3020, "平安夜": 3021, "昼夜": 3022, "清明": 3023, "谷物": 3024, "露水": 3025, "有霜": 3026, "推拿": 3027, "服饰": 3028, "面食": 3029, "包子": 3030, "主食": 3031, "特产": 3032, "加入": 3033, "喝茶": 3034, "品茶": 3035, "聊": 3036, "下次": 3037, "哈哈": 3038, "爱情": 3039, "金钱": 3040, "不困": 3041, "慢慢": 3042, "消失": 3043, "假期": 3044, "锻炼身体": 3045, "弹琴": 3046, "修身养性": 3047, "纪录片": 3048, "涨": 3049, "网购": 3050, "发微博": 3051, "谨慎": 3052, "开支": 3053, "有氧": 3054, "养生": 3055, "享受": 3056, "泡澡": 3057, "美容": 3058, "指甲": 3059, "很漂亮": 3060, "省钱": 3061, "坐船": 3062, "安静": 3063, "热闹": 3064, "精彩": 3065, "理疗": 3066, "艾灸": 3067, "红外线": 3068, "X光": 3069, "CT": 3070, "心电图": 3071, "脑电图": 3072, "肌电图": 3073, "肝脏": 3074, "骨密度": 3075, "肿瘤": 3076, "筛查": 3077, "中午": 3078, "车": 3079, "适度": 3080, "提交": 3081, "理清": 3082, "走出": 3083, "无力": 3084, "勉强": 3085, "羡慕": 3086, "仰慕": 3087, "美德": 3088, "创意": 3089, "格局": 3090, "源泉": 3091, "贡献": 3092, "看见": 3093, "放下": 3094, "忠诚": 3095, "使命": 3096, "前行": 3097, "自强": 3098, "千尺": 3099, "不公": 3100, "界限": 3101, "约束": 3102, "人道": 3103, "觉察": 3104, "前提": 3105, "上升": 3106, "扩大": 3107, "打破": 3108, "规模": 3109, "领域": 3110, "国际化": 3111, "生态系统": 3112, "城镇化": 3113, "中华民族": 3114, "回应": 3115, "讨论": 3116, "申诉": 3117, "意见": 3118, "授权": 3119, "具体": 3120, "应": 3121, "赔偿损失": 3122, "救济": 3123, "救助": 3124, "帮扶": 3125, "抚慰": 3126, "慰问": 3127, "关怀": 3128, "久": 3129, "空调": 3130, "接收": 3131, "合理安排": 3132, "干扰": 3133, "先说": 3134, "陈述": 3135, "奖励": 3136, "生产总值": 3137, "物价指数": 3138, "抵押": 3139, "比率": 3140, "必须": 3141, "便利": 3142, "股价": 3143, "净资产": 3144, "股票价格": 3145, "波动": 3146, "图表": 3147, "被动": 3148, "交易所": 3149, "上市": 3150, "投资者": 3151, "并购": 3152, "合并": 3153, "重新": 3154, "证券": 3155, "表": 3156, "现金": 3157, "流出": 3158, "利润": 3159, "逾期": 3160, "期限": 3161, "二": 3162, "出售": 3163, "升职": 3164, "一切顺利": 3165, "拥抱": 3166, "原谅": 3167, "一部分": 3168, "在乎": 3169, "假设": 3170, "羞愧": 3171, "子": 3172, "有些": 3173, "思念": 3174, "春风": 3175, "细雨": 3176, "白云": 3177, "蓝": 3178, "绿水": 3179, "遇见": 3180, "真": 3181, "无穷": 3182, "安心": 3183, "充实": 3184, "成就": 3185, "激情": 3186, "在意": 3187, "几次": 3188, "闭眼": 3189, "风格": 3190, "即兴": 3191, "管弦乐队": 3192, "拔草": 3193, "时长": 3194, "音频": 3195, "网红": 3196, "领袖": 3197, "段子": 3198, "跟风": 3199, "洗白": 3200, "恭喜发财": 3201, "万事": 3202, "顺意": 3203, "前程似锦": 3204, "步步高升": 3205, "蒸蒸日上": 3206, "越来越": 3207, "幸福美满": 3208, "高升": 3209, "发达": 3210, "富贵": 3211, "福星高照": 3212, "鸿运": 3213, "当头": 3214, "精神抖擞": 3215, "青云直上": 3216, "炒香": 3217, "蔬菜水果": 3218, "提神": 3219, "菠菜": 3220, "苦瓜": 3221, "香蕉": 3222, "太多": 3223, "收口": 3224, "圆": 3225, "淀粉": 3226, "煎制": 3227, "包裹": 3228, "打碎": 3229, "串": 3230, "烧烤": 3231, "白菜": 3232, "霉菌": 3233, "芝麻": 3234, "大豆": 3235, "不等式": 3236, "近现代史": 3237, "世界史": 3238, "鉴赏": 3239, "古代史": 3240, "文言文": 3241, "社会学": 3242, "西游记": 3243, "三国演义": 3244, "水浒传": 3245, "1984": 3246, "描述": 3247, "是否": 3248, "启动": 3249, "月度": 3250, "岛屿": 3251, "最深": 3252, "盆地": 3253, "刚果": 3254, "安第斯山脉": 3255, "红海": 3256, "黄河": 3257, "欧亚": 3258, "岛": 3259, "夏威夷": 3260, "印度尼西亚": 3261, "希腊": 3262, "缅甸": 3263, "东非": 3264, "波兰": 3265, "东欧": 3266, "哈尔": 3267, "见到": 3268, "欢迎": 3269, "咳嗽": 3270, "头疼": 3271, "腰疼": 3272, "难以": 3273, "抑郁": 3274, "智力": 3275, "口腔": 3276, "牙龈": 3277, "外": 3278, "恶心": 3279, "缺": 3280, "分泌": 3281, "肌": 3282, "疏松": 3283, "韧带": 3284, "断裂": 3285, "肌腱": 3286, "烧伤": 3287, "咬伤": 3288, "蜇伤": 3289, "伤": 3290, "伤害": 3291, "适应环境": 3292, "睡前": 3293, "晒太阳": 3294, "漱口": 3295, "过敏原": 3296, "冷敷": 3297, "抬高": 3298, "膝盖": 3299, "眨眼": 3300, "湿润": 3301, "两次": 3302, "晒": 3303, "三十分钟": 3304, "游": 3305, "十五分钟": 3306, "防晒": 3307, "两分钟": 3308, "时代": 3309, "托马斯": 3310, "长城": 3311, "故宫": 3312, "秦始皇陵": 3313, "敦煌": 3314, "运河": 3315, "水利工程": 3316, "黄鹤楼": 3317, "祭": 3318, "荣誉": 3319, "部长级": 3320, "监察": 3321, "三国": 3322, "汉族": 3323, "曾国藩": 3324, "李鸿章": 3325, "孙中山": 3326, "三个": 3327, "名相": 3328, "道家": 3329, "汉武帝": 3330, "张衡": 3331, "地动仪": 3332, "医学家": 3333, "诸葛亮": 3334, "曹操": 3335, "关羽": 3336, "苏轼": 3337, "辛弃疾": 3338, "李清照": 3339, "岳飞": 3340, "抗金": 3341, "文天祥": 3342, "抗元": 3343, "郑和": 3344, "七下": 3345, "西洋": 3346, "航海家": 3347, "戚继光": 3348, "抗倭": 3349, "林则徐": 3350, "虎门销烟": 3351, "西域": 3352, "分": 3353, "贫穷": 3354, "办法": 3355, "彼此": 3356, "致密": 3357, "明亮": 3358, "银河系": 3359, "时空": 3360, "原子核": 3361, "夸克": 3362, "等离子体": 3363, "希": 3364, "格斯": 3365, "赋予": 3366, "全息": 3367, "金属": 3368, "氢键": 3369, "生物体": 3370, "大分子": 3371, "染色体": 3372, "体": 3373, "细胞分裂": 3374, "序列": 3375, "恐龙": 3376, "结冰": 3377, "板块": 3378, "地壳": 3379, "海底": 3380, "大风": 3381, "流体": 3382, "变成": 3383, "有害物质": 3384, "噪声": 3385, "光污染": 3386, "电磁": 3387, "风能": 3388, "水能": 3389, "核能": 3390, "成像": 3391, "假体": 3392, "口罩": 3393, "急救": 3394, "消毒": 3395, "消除": 3396, "处方": 3397, "成分": 3398, "免疫": 3399, "氧气": 3400, "外星": 3401, "系": 3402, "外行星": 3403, "星": 3404, "集团": 3405, "离散": 3406, "周期": 3407, "发出": 3408, "碎片": 3409, "流星雨": 3410, "海王星": 3411, "巨大": 3412, "假想": 3413, "胚": 3414, "痕迹": 3415, "溺水": 3416, "工伤": 3417, "食品安全": 3418, "空气质量": 3419, "农药": 3420, "矿物质": 3421, "用于": 3422, "量化": 3423, "数值": 3424, "分类整理": 3425, "关": 3426, "光照": 3427, "冲泡": 3428, "简洁明了": 3429, "提高效率": 3430, "按压": 3431, "心肺": 3432, "真诚相待": 3433, "下属": 3434, "手洗": 3435, "拧": 3436, "切": 3437, "西红柿": 3438, "擦洗": 3439, "多用": 3440, "葡萄园": 3441, "柏拉图": 3442, "俄罗斯": 3443, "不知": 3444, "处": 3445, "桂花": 3446, "千里": 3447, "挂": 3448, "催": 3449, "一片": 3450, "雨": 3451, "三角形": 3452, "趋近": 3453, "角度": 3454, "排序": 3455, "九十度": 3456, "对边": 3457, "统计": 3458, "导电": 3459, "元素": 3460, "溶剂": 3461, "饱和溶液": 3462, "沉淀": 3463, "地热": 3464, "交换": 3465, "财富": 3466, "蜘蛛侠": 3467, "teknolust": 3468, "发布": 3469, "音符": 3470, "音": 3471, "调式": 3472, "独奏": 3473, "多人": 3474, "乐队": 3475, "乐": 3476, "宗教": 3477, "曲": 3478, "夜晚": 3479, "键盘乐器": 3480, "低音": 3481, "落叶": 3482, "杀死": 3483, "松树": 3484, "杨树": 3485, "叶在": 3486, "水分子": 3487, "每年": 3488, "将来": 3489, "雌蕊": 3490, "开裂": 3491, "果": 3492, "子叶": 3493, "机遇": 3494, "利益": 3495, "对立": 3496, "欲望": 3497, "带来": 3498, "声誉": 3499, "怀疑": 3500, "总统": 3501, "账号": 3502, "添加": 3503, "联系人": 3504, "员": 3505, "退": 3506, "换货": 3507, "报销": 3508, "要求": 3509, "献血": 3510, "志愿者": 3511, "公益": 3512, "退税": 3513, "代缴": 3514, "违章": 3515, "驾照": 3516, "理赔": 3517, "学信网": 3518, "派出所": 3519, "医院": 3520, "命名": 3521, "回报": 3522, "功夫": 3523, "虚心接受": 3524, "量力而行": 3525, "贪心": 3526, "礼貌": 3527, "瘾君子": 3528, "如果": 3529, "敢肯定": 3530, "作弊": 3531, "偏执狂": 3532, "大概": 3533, "劳逸结合": 3534, "进展": 3535, "下周": 3536, "考研": 3537, "借": 3538, "答疑": 3539, "闪电": 3540, "气压": 3541, "冰川": 3542, "湿地": 3543, "草原": 3544, "温带": 3545, "密度": 3546, "介质": 3547, "叠加": 3548, "退款": 3549, "哪个": 3550, "脚本": 3551, "知识产权": 3552, "安全法": 3553, "广告": 3554, "管理法": 3555, "外国人": 3556, "保障法": 3557, "建筑": 3558, "采购": 3559, "和解": 3560, "异议": 3561, "法律文书": 3562, "失业": 3563, "占用": 3564, "队员": 3565, "板球": 3566, "四人": 3567, "长距离": 3568, "跳跃": 3569, "借助": 3570, "对手": 3571, "自行车赛": 3572, "坐轮椅": 3573, "内家": 3574, "综合": 3575, "功法": 3576, "联网": 3577, "分布式": 3578, "API": 3579, "接口": 3580, "虚拟现实": 3581, "5G": 3582, "架构": 3583, "审查": 3584, "并发": 3585, "异步": 3586, "阻塞": 3587, "超文本": 3588, "HTTPS": 3589, "TCP": 3590, "查找": 3591, "数组": 3592, "队列": 3593, "先进先出": 3594, "线性": 3595, "节点": 3596, "二叉树": 3597, "立体几何": 3598, "解析几何": 3599, "数列": 3600, "三角函数": 3601, "自然地理": 3602, "人文地理": 3603, "概率": 3604, "访问": 3605, "恶意软件": 3606, "浏览器": 3607, "音箱": 3608, "电视": 3609, "远程": 3610, "提醒": 3611, "去过": 3612, "民宿": 3613, "天晴": 3614, "晒被子": 3615, "银杏": 3616, "跨部门": 3617, "肝": 3618, "修士": 3619, "听说": 3620, "硬件": 3621, "羽毛": 3622, "黑": 3623, "喝水": 3624, "领地": 3625, "骨骼": 3626, "求偶": 3627, "学士": 3628, "生日": 3629, "潜水": 3630, "省": 3631, "护眼": 3632, "录像": 3633, "打电话": 3634, "烦躁": 3635, "郁闷": 3636, "懈怠": 3637, "定个": 3638, "浮躁": 3639, "困惑": 3640, "心走": 3641, "摇摆": 3642, "坚定信念": 3643, "天无绝人之路": 3644, "温和": 3645, "只是": 3646, "酱": 3647, "芝麻酱": 3648, "小火": 3649, "晚": 3650, "短小": 3651, "喜剧": 3652, "琵琶": 3653, "象棋": 3654, "贴": 3655, "饺子": 3656, "汤圆": 3657, "助手": 3658, "客气": 3659, "放在心上": 3660, "防暑": 3661, "不累": 3662, "画画": 3663, "送礼物": 3664, "增肌": 3665, "飞机": 3666, "酒吧": 3667, "吃点": 3668, "超越": 3669, "渴": 3670, "总结经验": 3671, "继续前进": 3672, "误解": 3673, "考验": 3674, "产物": 3675, "经过": 3676, "特点": 3677, "客观存在": 3678, "顿悟": 3679, "修行": 3680, "道德品质": 3681, "乡村": 3682, "富裕": 3683, "现代化": 3684, "向往": 3685, "使": 3686, "诉讼": 3687, "不满": 3688, "激发": 3689, "代理": 3690, "答应": 3691, "承担": 3692, "精神损失": 3693, "损害赔偿": 3694, "人人": 3695, "民主": 3696, "依法治国": 3697, "诚信": 3698, "友善": 3699, "友好": 3700, "爱国": 3701, "穿衣服": 3702, "不用": 3703, "删除": 3704, "汇率": 3705, "凭证": 3706, "分期付款": 3707, "第一次": 3708, "供": 3709, "还清": 3710, "帅": 3711, "十年": 3712, "愉快": 3713, "民谣": 3714, "说唱": 3715, "讲述": 3716, "播放": 3717, "流行": 3718, "分开": 3719, "一帆风顺": 3720, "一鸣惊人": 3721, "十全十美": 3722, "很少": 3723, "烘焙": 3724, "高压": 3725, "北冰洋": 3726, "人口": 3727, "西班牙": 3728, "!": 3729, "如": 3730, "红细胞": 3731, "各": 3732, "见面": 3733, "一套": 3734, "有把握": 3735, "之前": 3736, "演化": 3737, "脉冲": 3738, "洞": 3739, "酶": 3740, "高分子": 3741, "携带": 3742, "洪水": 3743, "弯曲": 3744, "抛出": 3745, "太阳风": 3746, "相互作用": 3747, "几何": 3748, "原始数据": 3749, "叠": 3750, "节约用水": 3751, "节约": 3752, "湿": 3753, "活性炭": 3754, "养狗": 3755, "冲": 3756, "洗洁精": 3757, "报纸": 3758, "申报": 3759, "分工": 3760, "落地": 3761, "看过": 3762, "本书": 3763, "李白": 3764, "休": 3765, "求": 3766, "用电": 3767, "拉": 3768, "发芽": 3769, "民族": 3770, "尊严": 3771, "真相": 3772, "糟糕": 3773, "男人": 3774, "操控": 3775, "英里": 3776, "有多远": 3777, "轨道": 3778, "干湿": 3779, "季": 3780, "七天": 3781, "数据安全": 3782, "事业": 3783, "短距离": 3784, "脚": 3785, "开源": 3786, "源代码": 3787, "软件开发": 3788, "DNS": 3789, "服务器端": 3790, "湖": 3791, "治理": 3792, "解密": 3793, "入侵": 3794, "密文": 3795, "分发": 3796, "/": 3797, "开发方法": 3798, "监控": 3799, "告警": 3800, "柿子树": 3801, "石榴树": 3802, "草莓": 3803, "融资": 3804, "倒": 3805, "花店": 3806, "一台": 3807, "实际上": 3808, "终止": 3809, "谈话": 3810, "早期": 3811, "编程语言": 3812, "Windows": 3813, "MAC": 3814, "计算机程序": 3815, "行走": 3816, "但是": 3817, "交配": 3818, "只住": 3819, "许多": 3820, "问询": 3821, "鱼类": 3822, "腔肠动物": 3823, "脊椎骨": 3824, "为食": 3825, "鸣叫": 3826, "觅食": 3827, "淡水": 3828, "洄游": 3829, "海豹": 3830, "草食性": 3831, "半": 3832, "蛇": 3833, "有壳": 3834, "采蜜": 3835, "八条": 3836, "毒刺": 3837, "长条形": 3838, "腕": 3839, "蚯蚓": 3840, "环节动物": 3841, "形": 3842, "球形": 3843, "华南虎": 3844, "虎": 3845, "白鳍豚": 3846, "朱鹮": 3847, "中华鲟": 3848, "野马": 3849, "陆地": 3850, "熊": 3851, "有袋": 3852, "产卵": 3853, "蝙蝠": 3854, "挖掘": 3855, "爬树": 3856, "家养": 3857, "最早": 3858, "驯化": 3859, "杂交": 3860, "家畜": 3861, "性": 3862, "象征": 3863, "寄生": 3864, "黄鹂": 3865, "黄色": 3866, "歌声": 3867, "山区": 3868, "稀少": 3869, "六个": 3870, "雪地": 3871, "五个": 3872, "高山": 3873, "树叶": 3874, "可达": 3875, "吃鹿": 3876, "七百": 3877, "公斤": 3878, "骨头": 3879, "舔": 3880, "视野": 3881, "本能": 3882, "薄荷": 3883, "化学物质": 3884, "草": 3885, "鳞": 3886, "蜇": 3887, "蚜虫": 3888, "异性": 3889, "口才": 3890, "科目": 3891, "号码": 3892, "电力": 3893, "妈妈": 3894, "其实": 3895, "年轻": 3896, "主人": 3897, "场合": 3898, "外套": 3899, "长袖": 3900, "羽绒服": 3901, "约会": 3902, "同学": 3903, "离职": 3904, "文艺": 3905, "合唱": 3906, "角色": 3907, "书法": 3908, "插花": 3909, "柔道": 3910, "保龄球": 3911, "杀": 3912, "卡丁车": 3913, "蹦床": 3914, "不了": 3915, "机了": 3916, "重装系统": 3917, "内存": 3918, "中毒": 3919, "杀毒软件": 3920, "没网": 3921, "画面": 3922, "风扇": 3923, "灰尘": 3924, "自动关机": 3925, "重装": 3926, "格式化": 3927, "或换": 3928, "考虑": 3929, "赶紧": 3930, "顿": 3931, "信号": 3932, "SIM卡": 3933, "出厂": 3934, "不必要": 3935, "勿扰": 3936, "热点": 3937, "NFC": 3938, "权限": 3939, "录入": 3940, "面部": 3941, "插上": 3942, "支架": 3943, "自拍杆": 3944, "三脚架": 3945, "稳定器": 3946, "光灯": 3947, "外接": 3948, "镜头": 3949, "无线": 3950, "快充": 3951, "OTG": 3952, "投屏": 3953, "截屏": 3954, "键": 3955, "分屏": 3956, "小窗": 3957, "多开": 3958, "双开": 3959, "导出": 3960, "震动": 3961, "铃声": 3962, "导航": 3963, "监测": 3964, "词典": 3965, "相机": 3966, "修图": 3967, "最棒": 3968, "庆祝": 3969, "一条": 3970, "愉悦": 3971, "听到": 3972, "工作效率": 3973, "工资": 3974, "日子": 3975, "爸妈": 3976, "想家": 3977, "有点累": 3978, "悲观": 3979, "缺点": 3980, "改": 3981, "跟随": 3982, "心灵": 3983, "反映": 3984, "诗": 3985, "笑容": 3986, "蛋糕": 3987, "谎言": 3988, "优于": 3989, "秘密": 3990, "爱我吗": 3991, "bot": 3992, "糖色": 3993, "炒熟": 3994, "盛出": 3995, "收汁": 3996, "麻婆豆腐": 3997, "切丁": 3998, "鱼香肉丝": 3999, "肉丝": 4000, "笋丝": 4001, "浇鱼": 4002, "香汁": 4003, "回锅肉": 4004, "蒜苗": 4005, "水煮鱼": 4006, "垫底": 4007, "料酒": 4008, "四季豆": 4009, "西兰花": 4010, "凉拌": 4011, "蒜": 4012, "泡": 4013, "鸭加": 4014, "米粉": 4015, "蒜泥": 4016, "面团": 4017, "削": 4018, "清汤": 4019, "肥肠": 4020, "扬州": 4021, "火腿": 4022, "小米粥": 4023, "小米": 4024, "加米": 4025, "银耳": 4026, "绿豆汤": 4027, "红豆": 4028, "药材": 4029, "羊肉": 4030, "酸辣汤": 4031, "紫菜": 4032, "蛋花": 4033, "莲藕": 4034, "海带": 4035, "传统节日": 4036, "八月": 4037, "清明节": 4038, "祭祀": 4039, "重阳节": 4040, "登高": 4041, "守岁": 4042, "十月": 4043, "三十一日": 4044, "十一月": 4045, "星期日": 4046, "六月": 4047, "国庆节": 4048, "元旦": 4049, "一月": 4050, "妇女节": 4051, "三月": 4052, "春季": 4053, "雨水": 4054, "增多": 4055, "清澈": 4056, "麦类": 4057, "作物": 4058, "降雪": 4059, "八卦": 4060, "传统武术": 4061, "相声": 4062, "小品": 4063, "手工艺": 4064, "茶文化": 4065, "对联": 4066, "红色": 4067, "馒头": 4068, "饮品": 4069, "油条": 4070, "年糕": 4071, "腊肉": 4072, "泡菜": 4073, "豆制品": 4074, "调味品": 4075, "红茶": 4076, "全": 4077, "茶盘": 4078, "白酒": 4079, "黄酒": 4080, "龙舌兰": 4081, "韩国": 4082, "自控力": 4083, "简史": 4084, "聊聊天": 4085, "小智": 4086, "晚安": 4087, "早点": 4088, "失恋": 4089, "穿点": 4090, "外面": 4091, "还是": 4092, "友情": 4093, "互相理解": 4094, "餐厅": 4095, "干嘛": 4096, "特长": 4097, "也好": 4098, "有益健康": 4099, "逛街": 4100, "打扫": 4101, "看书": 4102, "读书": 4103, "门前": 4104, "有用": 4105, "拆": 4106, "AA制": 4107, "发红包": 4108, "理性": 4109, "修身": 4110, "SPA": 4111, "温泉": 4112, "敷": 4113, "面膜": 4114, "换个": 4115, "化妆": 4116, "素颜": 4117, "衣柜": 4118, "扔": 4119, "公交": 4120, "单车": 4121, "高铁": 4122, "大巴": 4123, "缆车": 4124, "过山车": 4125, "摩天轮": 4126, "游乐园": 4127, "水族馆": 4128, "书店": 4129, "咖啡厅": 4130, "茶馆": 4131, "KTV": 4132, "电影院": 4133, "游泳馆": 4134, "山里": 4135, "菜市场": 4136, "超市": 4137, "商场": 4138, "夜市": 4139, "庙会": 4140, "花市": 4141, "宠物店": 4142, "古玩店": 4143, "旧货": 4144, "跳蚤市场": 4145, "拍卖会": 4146, "足疗": 4147, "拔罐": 4148, "汗": 4149, "水疗": 4150, "光疗": 4151, "磁疗": 4152, "电疗": 4153, "核磁": 4154, "B超": 4155, "大脑": 4156, "血常规": 4157, "尿常规": 4158, "便": 4159, "常规": 4160, "肝功能": 4161, "肾功能": 4162, "肾脏": 4163, "血脂": 4164, "荤素": 4165, "清淡": 4166, "吃太多": 4167, "饭": 4168, "买点": 4169, "新鲜": 4170, "弹": 4171, "想见": 4172, "话题": 4173, "种": 4174, "活": 4175, "好奇": 4176, "PPT": 4177, "写出": 4178, "回复": 4179, "微博": 4180, "日记": 4181, "区": 4182, "失控": 4183, "混乱": 4184, "靠近": 4185, "孤立": 4186, "理会": 4187, "质疑": 4188, "坦诚相待": 4189, "体贴": 4190, "守信用": 4191, "义气": 4192, "责任心": 4193, "主见": 4194, "锻炼": 4195, "进取心": 4196, "带领": 4197, "共": 4198, "奉献": 4199, "利": 4200, "升华": 4201, "知足": 4202, "融入": 4203, "原则": 4204, "牢记": 4205, "砥砺": 4206, "奋勇前进": 4207, "勇往直前": 4208, "奋发图强": 4209, "自强不息": 4210, "厚德载物": 4211, "天行健": 4212, "地势": 4213, "坤": 4214, "上善若水": 4215, "大道至简": 4216, "体现": 4217, "知行合一": 4218, "格物致知": 4219, "诚意": 4220, "修身齐家": 4221, "根本": 4222, "治国": 4223, "平天下": 4224, "天地": 4225, "立心": 4226, "为生": 4227, "民": 4228, "立命": 4229, "往": 4230, "圣继": 4231, "绝学": 4232, "万世开": 4233, "太平": 4234, "匹夫有责": 4235, "沧海": 4236, "天下": 4237, "桃花潭水": 4238, "不及": 4239, "汪伦送": 4240, "我情": 4241, "折磨": 4242, "担忧": 4243, "教训": 4244, "准则": 4245, "底线": 4246, "个性": 4247, "自尊": 4248, "自爱": 4249, "自知": 4250, "自立": 4251, "天道": 4252, "公理": 4253, "常识": 4254, "醒悟": 4255, "领悟": 4256, "感悟": 4257, "品德": 4258, "品格": 4259, "人情": 4260, "人缘": 4261, "人气": 4262, "人脉": 4263, "人品": 4264, "重要性": 4265, "痛点": 4266, "买卖": 4267, "争夺": 4268, "转型": 4269, "瓶颈": 4270, "优势": 4271, "多元化": 4272, "碳达峰": 4273, "峰值": 4274, "复兴": 4275, "各方": 4276, "一致": 4277, "裁决": 4278, "举报": 4279, "反对": 4280, "赞成": 4281, "批准": 4282, "委托": 4283, "亲眼看到": 4284, "履行合同": 4285, "损失赔偿": 4286, "造成": 4287, "间接": 4288, "预计": 4289, "分担": 4290, "弥补": 4291, "富强": 4292, "社会主义": 4293, "真棒": 4294, "最出色": 4295, "杯水": 4296, "烦恼": 4297, "卖": 4298, "屏蔽": 4299, "撤回": 4300, "文本": 4301, "粘贴": 4302, "剪切": 4303, "上传": 4304, "二级": 4305, "标题": 4306, "正文": 4307, "开会": 4308, "定": 4309, "议题": 4310, "高难度": 4311, "放在": 4312, "截止": 4313, "上涨": 4314, "商业银行": 4315, "存款": 4316, "坏账": 4317, "所有权": 4318, "每股": 4319, "震荡": 4320, "合格": 4321, "私募": 4322, "重组": 4323, "挂牌": 4324, "流入": 4325, "流动": 4326, "债务": 4327, "毛利": 4328, "交给": 4329, "买车": 4330, "凭": 4331, "金融服务": 4332, "我试": 4333, "放心": 4334, "好受": 4335, "确实": 4336, "骂": 4337, "别难过": 4338, "生日快乐": 4339, "好大": 4340, "敢于": 4341, "克服": 4342, "傲慢": 4343, "这会": 4344, "冒犯": 4345, "任何人": 4346, "清醒": 4347, "祈祷": 4348, "许愿": 4349, "盼望": 4350, "依靠": 4351, "仰望": 4352, "欣赏": 4353, "拯救": 4354, "守护": 4355, "听见": 4356, "懂得": 4357, "想起": 4358, "敬佩": 4359, "深爱": 4360, "宠爱": 4361, "偏爱": 4362, "独爱": 4363, "唯一": 4364, "心肝": 4365, "甜蜜": 4366, "微笑": 4367, "最亮": 4368, "大海": 4369, "山川": 4370, "蓝天": 4371, "青山": 4372, "绿": 4373, "清风": 4374, "繁星": 4375, "晨曦": 4376, "晚霞": 4377, "夕阳": 4378, "岁月": 4379, "一辈子": 4380, "此生": 4381, "来世": 4382, "还要": 4383, "前世": 4384, "今生": 4385, "一生": 4386, "一世": 4387, "一百年": 4388, "一千年": 4389, "一万年": 4390, "无尽": 4391, "无边": 4392, "无际": 4393, "无限大": 4394, "远": 4395, "一半": 4396, "底气": 4397, "活力": 4398, "拼劲": 4399, "冲劲": 4400, "闯劲": 4401, "韧劲": 4402, "巧劲": 4403, "心酸": 4404, "心痛": 4405, "心累": 4406, "集中": 4407, "心锁": 4408, "电流": 4409, "心病": 4410, "卡农": 4411, "古典音乐": 4412, "流行音乐": 4413, "大众": 4414, "喜爱": 4415, "摇滚乐": 4416, "力量感": 4417, "爵士乐": 4418, "电子音乐": 4419, "电子设备": 4420, "交响乐": 4421, "对话": 4422, "戏剧": 4423, "魔术": 4424, "杂技": 4425, "马戏": 4426, "脱口秀": 4427, "真人秀": 4428, "选秀": 4429, "二次元": 4430, "追星": 4431, "应援": 4432, "安利": 4433, "某样": 4434, "开箱": 4435, "测评": 4436, "探店": 4437, "实时": 4438, "vlog": 4439, "KOL": 4440, "实力派": 4441, "外表": 4442, "演技": 4443, "唱功": 4444, "舞技": 4445, "才艺": 4446, "搞笑": 4447, "冷笑": 4448, "梗": 4449, "弹幕": 4450, "刷屏": 4451, "热度": 4452, "炒作": 4453, "黑料": 4454, "负面": 4455, "瓜": 4456, "破防": 4457, "泪目": 4458, "上头": 4459, "下头": 4460, "意难平": 4461, "错过": 4462, "相见": 4463, "相聚": 4464, "团圆": 4465, "失落感": 4466, "落空": 4467, "孤独感": 4468, "恐惧感": 4469, "新鲜感": 4470, "疲惫感": 4471, "优越感": 4472, "荣誉感": 4473, "自豪感": 4474, "羞耻感": 4475, "内疚感": 4476, "抱歉": 4477, "嫉妒心": 4478, "虚荣心": 4479, "荣耀": 4480, "攀比": 4481, "团团圆圆": 4482, "女神": 4483, "植树节": 4484, "建党": 4485, "糖": 4486, "大吉": 4487, "学业有成": 4488, "事业有成": 4489, "如意": 4490, "年年有余": 4491, "大吉大利": 4492, "同喜": 4493, "辞旧迎新": 4494, "阖家欢乐": 4495, "鹏程万里": 4496, "万里": 4497, "好上加好": 4498, "节节": 4499, "日进斗金": 4500, "生意兴隆": 4501, "招财进宝": 4502, "金玉满堂": 4503, "荣华富贵": 4504, "五福临门": 4505, "紫气东来": 4506, "龙马精神": 4507, "生龙活虎": 4508, "虎虎生威": 4509, "龙腾虎跃": 4510, "马到成功": 4511, "旗开得胜": 4512, "一举成名": 4513, "功成名就": 4514, "出人头地": 4515, "飞黄腾达": 4516, "平步青云": 4517, "扶摇直上": 4518, "一飞冲天": 4519, "出类拔萃": 4520, "鹤立鸡群": 4521, "卓尔不群": 4522, "独占鳌头": 4523, "首屈一指": 4524, "无与伦比": 4525, "登峰造极": 4526, "炉火纯青": 4527, "出神入化": 4528, "鬼斧神工": 4529, "巧夺天工": 4530, "美轮美奂": 4531, "尽善尽美": 4532, "无懈可击": 4533, "天衣无缝": 4534, "八大菜系": 4535, "饮料": 4536, "卡路里": 4537, "必需": 4538, "营养素": 4539, "储能": 4540, "有助于": 4541, "抗氧化": 4542, "富含": 4543, "低卡": 4544, "高蛋白": 4545, "碳水": 4546, "实在": 4547, "喝咖啡": 4548, "钙质": 4549, "酸奶": 4550, "肠胃": 4551, "补铁": 4552, "补钙": 4553, "补锌": 4554, "牡蛎": 4555, "明目": 4556, "养胃": 4557, "降火": 4558, "助眠": 4559, "抗衰老": 4560, "喝酒": 4561, "捏紧": 4562, "酵母": 4563, "揉面": 4564, "卷起": 4565, "糯米粉": 4566, "包馅": 4567, "拉长": 4568, "炸制": 4569, "黄豆": 4570, "凝固剂": 4571, "揭皮": 4572, "米线": 4573, "米浆": 4574, "灌": 4575, "饼": 4576, "掰": 4577, "螺蛳": 4578, "配菜": 4579, "酱料": 4580, "通心粉": 4581, "沙拉酱": 4582, "煮烂": 4583, "食材加": 4584, "炒制": 4585, "烤箱": 4586, "鸭蛋": 4587, "王者": 4588, "阶段": 4589, "无效": 4590, "哈利波": 4591, "特": 4592, "园艺": 4593, "下棋": 4594, "匹配": 4595, "岗位": 4596, "里程碑": 4597, "缓冲": 4598, "困扰": 4599, "愿意": 4600, "当作": 4601, "年度": 4602, "撒哈拉沙漠": 4603, "格陵兰岛": 4604, "贝加尔湖": 4605, "海沟": 4606, "平原": 4607, "亚马逊": 4608, "喜马拉雅山脉": 4609, "中间": 4610, "经线": 4611, "本初子午线": 4612, "划分": 4613, "淡水湖": 4614, "长江": 4615, "印度": 4616, "分界线": 4617, "黄山": 4618, "雨林": 4619, "巨人": 4620, "马达加斯加": 4621, "东南部": 4622, "朝鲜": 4623, "蒙古": 4624, "越南": 4625, "菲律宾": 4626, "中非": 4627, "南欧": 4628, "西南": 4629, "欧": 4630, "小国": 4631, "阿根廷": 4632, "海峡": 4633, "当前": 4634, "以后": 4635, "AI": 4636, "hello": 4637, "节日快乐": 4638, "好久不见": 4639, "周末好": 4640, "抵抗": 4641, "高血压": 4642, "糖尿病": 4643, "发炎": 4644, "感染": 4645, "防御反应": 4646, "头部": 4647, "有关": 4648, "颈椎": 4649, "退行性": 4650, "关节炎": 4651, "代谢": 4652, "咽喉": 4653, "应激": 4654, "缺陷": 4655, "低于正常": 4656, "神经系统": 4657, "发作": 4658, "远处": 4659, "看不清": 4660, "晶状体": 4661, "破损": 4662, "出血": 4663, "口臭": 4664, "咽喉部": 4665, "扁桃体": 4666, "声带": 4667, "息肉": 4668, "鼻窦炎": 4669, "症": 4670, "中耳炎": 4671, "耳炎": 4672, "晕车": 4673, "头晕": 4674, "晕船": 4675, "营养不良": 4676, "体重": 4677, "钙": 4678, "铁": 4679, "锌": 4680, "免疫性": 4681, "硬化": 4682, "干燥": 4683, "神经": 4684, "椎间盘": 4685, "半月板": 4686, "割伤": 4687, "刺伤": 4688, "尖锐": 4689, "挤压": 4690, "持": 4691, "倾向": 4692, "部位": 4693, "冲动": 4694, "激励": 4695, "交往": 4696, "构思": 4697, "养龙": 4698, "降温": 4699, "三十八": 4700, "度": 4701, "退烧药": 4702, "嗓子疼": 4703, "盐水": 4704, "止痛药": 4705, "胃疼": 4706, "拉肚子": 4707, "便秘": 4708, "抗过敏": 4709, "阴凉处": 4710, "挑破": 4711, "伤肢": 4712, "流鼻血": 4713, "牙疼": 4714, "掏耳朵": 4715, "脚疼": 4716, "鞋": 4717, "手疼": 4718, "皮肤痒": 4719, "保湿霜": 4720, "嘴唇": 4721, "润唇膏": 4722, "生理盐水": 4723, "喷鼻": 4724, "护发素": 4725, "涂护甲油": 4726, "早晚": 4727, "眼保健操": 4728, "两百": 4729, "二十五": 4730, "三十": 4731, "两到": 4732, "一到": 4733, "三杯": 4734, "抽": 4735, "洗澡": 4736, "内战": 4737, "随着": 4738, "四大发明": 4739, "毕": 4740, "昇": 4741, "活字印刷": 4742, "东西方": 4743, "古道": 4744, "西南地区": 4745, "防御工事": 4746, "明清两代": 4747, "皇宫": 4748, "兵马俑": 4749, "陪葬品": 4750, "莫高窟": 4751, "洛阳": 4752, "大运河": 4753, "都江堰": 4754, "李冰": 4755, "赵州桥": 4756, "石拱桥": 4757, "岳阳楼": 4758, "滕王阁": 4759, "名楼": 4760, "大雁塔": 4761, "木塔": 4762, "布达拉宫": 4763, "西藏": 4764, "宫殿": 4765, "天坛": 4766, "祭天": 4767, "国子监": 4768, "学府": 4769, "科举": 4770, "考试制度": 4771, "进士": 4772, "状元": 4773, "第一名": 4774, "宰相": 4775, "尚书": 4776, "御史": 4777, "知府": 4778, "知县": 4779, "大员": 4780, "基层": 4781, "袁世凯": 4782, "青铜器时代": 4783, "分封制": 4784, "强盛": 4785, "魏蜀吴": 4786, "晋朝": 4787, "元朝": 4788, "蒙古族": 4789, "满族": 4790, "尧": 4791, "舜": 4792, "禹": 4793, "治水": 4794, "暴君": 4795, "文王": 4796, "武王": 4797, "姜子牙": 4798, "开国功臣": 4799, "管仲": 4800, "齐国": 4801, "孙子兵法": 4802, "孔子": 4803, "老子": 4804, "墨子": 4805, "墨家": 4806, "韩非子": 4807, "法家": 4808, "商鞅": 4809, "秦国": 4810, "变法": 4811, "李斯": 4812, "张骞": 4813, "开拓者": 4814, "司马迁": 4815, "史记": 4816, "孙权": 4817, "张飞": 4818, "赵云": 4819, "周瑜": 4820, "司马懿": 4821, "权臣": 4822, "顾恺之": 4823, "著名画家": 4824, "陶渊明": 4825, "田园诗人": 4826, "白居易": 4827, "左宗棠": 4828, "张之洞": 4829, "中华民国": 4830, "缔造者": 4831, "蔡元培": 4832, "北京大学": 4833, "校长": 4834, "鲁迅": 4835, "胡适": 4836, "学者": 4837, "陈独秀": 4838, "新文化运动": 4839, "李大钊": 4840, "中国共产党": 4841, "毛泽东": 4842, "周恩来": 4843, "总理": 4844, "邓小平": 4845, "改革开放": 4846, "故城": 4847, "诗人": 4848, "一头": 4849, "帽子": 4850, "阻挡": 4851, "完全相同": 4852, "一掷千金": 4853, "挫折": 4854, "当面": 4855, "种类": 4856, "色彩": 4857, "声势浩大": 4858, "千真万确": 4859, "永不": 4860, "预料": 4861, "心甘情愿": 4862, "万公里": 4863, "多远": 4864, "逃脱": 4865, "核": 4866, "仙女座": 4867, "一百三十八": 4868, "亿年": 4869, "爱因斯坦": 4870, "有力": 4871, "万有引力": 4872, "带电粒子": 4873, "质子": 4874, "带电": 4875, "相反": 4876, "玻色子": 4877, "电阻": 4878, "受激": 4879, "纳米": 4880, "声波": 4881, "无线电波": 4882, "微波": 4883, "红光": 4884, "可见光": 4885, "高能": 4886, "伽马射线": 4887, "离子": 4888, "酸": 4889, "氢离子": 4890, "碱": 4891, "氧": 4892, "催化剂": 4893, "含碳": 4894, "无机物": 4895, "细胞膜": 4896, "细胞壁": 4897, "食物链": 4898, "地质年代": 4899, "晚期": 4900, "年代": 4901, "地球表面": 4902, "岩浆": 4903, "喷出": 4904, "地表": 4905, "海啸": 4906, "强烈": 4907, "气旋": 4908, "龙卷风": 4909, "山体": 4910, "向下": 4911, "盐分": 4912, "层": 4913, "地热能": 4914, "内部": 4915, "潮汐能": 4916, "潮汐": 4917, "核裂变": 4918, "生物质能": 4919, "发电机": 4920, "微小": 4921, "光谱": 4922, "PCR": 4923, "仪": 4924, "扩增": 4925, "测序": 4926, "测定": 4927, "脑电": 4928, "肢体": 4929, "眼镜": 4930, "镜片": 4931, "遮挡": 4932, "鼻": 4933, "手套": 4934, "纱布": 4935, "碘": 4936, "有益": 4937, "抑制": 4938, "真菌": 4939, "寄生虫": 4940, "止血": 4941, "过滤": 4942, "效应": 4943, "光波": 4944, "发送信息": 4945, "洞察": 4946, "哈勃": 4947, "奇异": 4948, "聚集": 4949, "不规则": 4950, "红巨星": 4951, "暴": 4952, "剧烈": 4953, "射电": 4954, "流": 4955, "高纬度": 4956, "小行星": 4957, "彗星": 4958, "神星": 4959, "天王星": 4960, "尺度": 4961, "纤维状": 4962, "场": 4963, "万": 4964, "维度": 4965, "集": 4966, "干细胞": 4967, "基因治疗": 4968, "精确": 4969, "诱变": 4970, "组数": 4971, "航天": 4972, "胚状体": 4973, "单克隆": 4974, "单一": 4975, "精子": 4976, "注入": 4977, "冻": 4978, "鉴定": 4979, "物证": 4980, "画像": 4981, "追踪": 4982, "足迹": 4983, "血迹": 4984, "枪弹": 4985, "车辆": 4986, "火灾": 4987, "坠落": 4988, "产品质量": 4989, "水质": 4990, "粉尘": 4991, "重金属": 4992, "兽药": 4993, "添加剂": 4994, "防腐剂": 4995, "色素": 4996, "甜味剂": 4997, "增稠剂": 4998, "乳化剂": 4999, "抗氧化剂": 5000, "营养成分": 5001, "灰分": 5002, "酸价": 5003, "过氧化": 5004, "菌落": 5005, "总数": 5006, "大肠菌群": 5007, "致病菌": 5008, "酵母菌": 5009, "拟合": 5010, "分成": 5011, "多份": 5012, "映射": 5013, "煮面": 5014, "加糖": 5015, "拖地": 5016, "拖": 5017, "布置": 5018, "拨打": 5019, "跳": 5020, "分清": 5021, "哑铃": 5022, "蹲": 5023, "手臂": 5024, "基本功": 5025, "15": 5026, "穴位": 5027, "适中": 5028, "20": 5029, "电话": 5030, "人工呼吸": 5031, "带上": 5032, "开窗": 5033, "晕机": 5034, "十": 5035, "倾诉": 5036, "列出": 5037, "背叛": 5038, "背叛者": 5039, "公平竞争": 5040, "互相帮助": 5041, "干扰源": 5042, "主": 5043, "中性": 5044, "洗涤剂": 5045, "漂白剂": 5046, "水渍": 5047, "铁锈": 5048, "熨": 5049, "真空袋": 5050, "袋": 5051, "清洁剂": 5052, "蟑螂": 5053, "蚊": 5054, "修剪": 5055, "换盆": 5056, "排水": 5057, "生根": 5058, "浪费": 5059, "节约能源": 5060, "减排": 5061, "公共交通": 5062, "各国": 5063, "社团": 5064, "世纪": 5065, "品钦": 5066, "博": 5067, "斯": 5068, "托尔金": 5069, "乔叟": 5070, "安东尼": 5071, "写信": 5072, "怪人": 5073, "「": 5074, "」": 5075, "一本": 5076, "麦田": 5077, "参考": 5078, "2001": 5079, "LEM": 5080, "疑是": 5081, "地上": 5082, "霜": 5083, "思": 5084, "声": 5085, "相思": 5086, "空山": 5087, "深林": 5088, "落": 5089, "时节": 5090, "轻舟": 5091, "日照": 5092, "回": 5093, "何处": 5094, "插": 5095, "相识": 5096, "秋": 5097, "尘": 5098, "人间": 5099, "摘": 5100, "梧桐": 5101, "却": 5102, "知否": 5103, "沉醉": 5104, "争渡": 5105, "双溪": 5106, "代数": 5107, "面积": 5108, "随机": 5109, "微分方程": 5110, "图": 5111, "相似": 5112, "上限": 5113, "项": 5114, "张量": 5115, "坐标": 5116, "极坐标": 5117, "解出": 5118, "原点": 5119, "收敛": 5120, "方差": 5121, "宽度": 5122, "长度": 5123, "四边": 5124, "四角": 5125, "长方形": 5126, "一组": 5127, "菱形": 5128, "等距": 5129, "圆面": 5130, "顶点": 5131, "多边形": 5132, "棱锥": 5133, "正多面体": 5134, "四个": 5135, "介于": 5136, "导体": 5137, "绝缘体": 5138, "电镀": 5139, "沼气": 5140, "经济学": 5141, "免费": 5142, "1": 5143, "成都旅游": 5144, "南京旅游": 5145, "虚构": 5146, "哥斯拉": 5147, "共同点": 5148, "旋律": 5149, "有序": 5150, "音阶": 5151, "音色": 5152, "主调": 5153, "拉丁": 5154, "古巴": 5155, "艺人": 5156, "复调": 5157, "慢速": 5158, "变奏": 5159, "根部": 5160, "亲代": 5161, "肥料": 5162, "顶芽": 5163, "侧芽": 5164, "停止": 5165, "常绿": 5166, "茎": 5167, "两片": 5168, "根系": 5169, "总称": 5170, "主根": 5171, "气": 5172, "贮藏": 5173, "养分": 5174, "木质部": 5175, "韧皮部": 5176, "管状": 5177, "保护层": 5178, "成叶": 5179, "节间": 5180, "很长": 5181, "总状花序": 5182, "雄蕊": 5183, "同": 5184, "雌花": 5185, "雄花": 5186, "子房": 5187, "假果": 5188, "肉质": 5189, "干果": 5190, "聚合": 5191, "胚有": 5192, "善": 5193, "符合事实": 5194, "丑": 5195, "怯": 5196, "明辨是非": 5197, "言行一致": 5198, "父母": 5199, "信仰": 5200, "美的": 5201, "婚姻关系": 5202, "检验": 5203, "天生": 5204, "应享": 5205, "道德": 5206, "秩序": 5207, "意识": 5208, "虚无": 5209, "必然": 5210, "偶然": 5211, "遗忘": 5212, "幻想": 5213, "侵犯": 5214, "过分": 5215, "贪婪": 5216, "懒惰": 5217, "人生观": 5218, "世界观": 5219, "主张": 5220, "阶级": 5221, "弹劾": 5222, "每隔": 5223, "B": 5224, "百度": 5225, "网易": 5226, "QQ": 5227, "注销": 5228, "免": 5229, "黑名单": 5230, "白名单": 5231, "分组": 5232, "置顶": 5233, "星标": 5234, "转账": 5235, "发小红书": 5236, "发帖子": 5237, "私信": 5238, "发传真": 5239, "寄": 5240, "客服": 5241, "拒收": 5242, "确认": 5243, "收货": 5244, "开票": 5245, "复印": 5246, "传真": 5247, "寄信": 5248, "转诊": 5249, "住院": 5250, "出院": 5251, "复查": 5252, "报名": 5253, "退租": 5254, "装修": 5255, "牌": 5256, "过户": 5257, "报废": 5258, "罚款": 5259, "扣分": 5260, "消分": 5261, "续保": 5262, "退保": 5263, "保持良好": 5264, "学历": 5265, "学籍": 5266, "教务处": 5267, "民政局": 5268, "公证": 5269, "通行证": 5270, "续签": 5271, "补签": 5272, "挂失": 5273, "注释": 5274, "调试": 5275, "断点": 5276, "因": 5277, "铁杵磨成针": 5278, "实事求是": 5279, "好学": 5280, "补救": 5281, "会变": 5282, "费力": 5283, "真相大白": 5284, "坦率": 5285, "说话算数": 5286, "回头": 5287, "不诚实": 5288, "指责": 5289, "那个": 5290, "有时候": 5291, "地位": 5292, "迂腐": 5293, "隐藏": 5294, "相当": 5295, "委婉": 5296, "执念": 5297, "认清": 5298, "本质": 5299, "暴力": 5300, "报警": 5301, "虐待": 5302, "开源节流": 5303, "灵活": 5304, "告别": 5305, "心怀": 5306, "攻击": 5307, "善意": 5308, "沉默": 5309, "求助": 5310, "特权": 5311, "冷战": 5312, "上课": 5313, "第一节": 5314, "一节": 5315, "下个月": 5316, "食堂": 5317, "竞赛": 5318, "答辩": 5319, "生活费": 5320, "AA": 5321, "差评": 5322, "中评": 5323, "追评": 5324, "晒图": 5325, "刷题": 5326, "考前": 5327, "补考": 5328, "重修": 5329, "辅修": 5330, "保研": 5331, "直博": 5332, "延期": 5333, "休学": 5334, "退学": 5335, "复学": 5336, "转学": 5337, "插班": 5338, "跳级": 5339, "留级": 5340, "旁听": 5341, "逃课": 5342, "请假": 5343, "查重": 5344, "降重": 5345, "润色": 5346, "排版": 5347, "引用": 5348, "参考文献": 5349, "致谢": 5350, "摘要": 5351, "目录": 5352, "生成": 5353, "页码": 5354, "封面": 5355, "装订": 5356, ";": 5357, "地球日": 5358, "其": 5359, "化学反应": 5360, "蓝光": 5361, "云层": 5362, "水滴": 5363, "冰晶": 5364, "冰雹": 5365, "强对流": 5366, "自转": 5367, "月食": 5368, "太阳光": 5369, "日食": 5370, "分子运动": 5371, "间距": 5372, "回声": 5373, "直线传播": 5374, "障碍物": 5375, "衍射": 5376, "干涉": 5377, "这件": 5378, "请稍等": 5379, "你们": 5380, "详情请": 5381, "店铺": 5382, "包邮": 5383, "新品": 5384, "发给": 5385, "货到付款": 5386, "赠品": 5387, "领取": 5388, "优惠券": 5389, "会员": 5390, "加急": 5391, "仲裁法": 5392, "个人所得税": 5393, "商标": 5394, "专利": 5395, "反": 5396, "会计": 5397, "期货": 5398, "外汇": 5399, "出境": 5400, "入境": 5401, "集会游行": 5402, "宗教事务": 5403, "出版": 5404, "保护法": 5405, "妇女": 5406, "老年人": 5407, "民办教育": 5408, "城乡规划": 5409, "房地产": 5410, "物业管理": 5411, "招标": 5412, "捐赠": 5413, "志愿": 5414, "团体": 5415, "登记": 5416, "基金会": 5417, "民办非": 5418, "委员会": 5419, "组织法": 5420, "信访": 5421, "行政复议": 5422, "等额": 5423, "名单": 5424, "更正": 5425, "风险管理": 5426, "房屋": 5427, "养老保险": 5428, "征税": 5429, "附加": 5430, "附加费": 5431, "就业": 5432, "工会": 5433, "牧业": 5434, "耕地": 5435, "船舶": 5436, "烟叶": 5437, "水资源": 5438, "11": 5439, "名": 5440, "踢足球": 5441, "击打": 5442, "水球": 5443, "田径": 5444, "跳远": 5445, "赛跑": 5446, "跳高": 5447, "铅球": 5448, "标枪": 5449, "链球": 5450, "体操": 5451, "乘坐": 5452, "雪板": 5453, "伞": 5454, "溪流": 5455, "摩托车": 5456, "场地": 5457, "竞速": 5458, "室内": 5459, "盲人": 5460, "滑雪运动": 5461, "少林寺": 5462, "戳": 5463, "剑": 5464, "剑术": 5465, "柔术": 5466, "器械": 5467, "扇": 5468, "木兰": 5469, "好难": 5470, "基于": 5471, "多写": 5472, "计算资源": 5473, "中心化": 5474, "账本": 5475, "学好": 5476, "背单词": 5477, "网络协议": 5478, "图像": 5479, "喜好": 5480, "版本控制": 5481, "控制系统": 5482, "托管": 5483, "进行": 5484, "第五代": 5485, "数据源": 5486, "运维": 5487, "重构": 5488, "设计模式": 5489, "面向对象编程": 5490, "范式": 5491, "正则表达式": 5492, "JSON": 5493, "XML": 5494, "HTML": 5495, "CSS": 5496, "JavaScript": 5497, "传输控制协议": 5498, "互联网协议": 5499, "URL": 5500, "用户界面": 5501, "UI": 5502, "UX": 5503, "递归": 5504, "动态": 5505, "回溯": 5506, "二分": 5507, "哈希": 5508, "键值": 5509, "链表": 5510, "堆": 5511, "字典": 5512, "大会": 5513, "间隔": 5514, "周报": 5515, "堆积": 5516, "报": 5517, "显示": 5518, "欺诈": 5519, "付费": 5520, "定时": 5521, "收支": 5522, "现金流": 5523, "酒店": 5524, "自驾游": 5525, "跟团": 5526, "穷游": 5527, "跟": 5528, "团游": 5529, "背包客": 5530, "青旅": 5531, "能见度": 5532, "不带": 5533, "防护": 5534, "看雪": 5535, "看云": 5536, "看海": 5537, "看山": 5538, "看湖": 5539, "看河": 5540, "科技馆": 5541, "天文馆": 5542, "海洋馆": 5543, "植物园": 5544, "果园": 5545, "菜园": 5546, "茶园": 5547, "竹林": 5548, "枫叶": 5549, "樱花": 5550, "荷花": 5551, "菊花": 5552, "梅花": 5553, "油菜花": 5554, "薰衣草": 5555, "牡丹": 5556, "玫瑰": 5557, "百合": 5558, "康乃馨": 5559, "郁金香": 5560, "水仙": 5561, "茉莉": 5562, "兰花": 5563, "常青": 5564, "柳树": 5565, "枫树": 5566, "榕树": 5567, "樟树": 5568, "柏树": 5569, "杉树": 5570, "橡树": 5571, "榆树": 5572, "槐树": 5573, "桑树": 5574, "枣树": 5575, "苹果树": 5576, "梨树": 5577, "桃树": 5578, "杏树": 5579, "园": 5580, "猕猴桃": 5581, "火龙果": 5582, "菠萝": 5583, "柚子": 5584, "橙子": 5585, "榴莲": 5586, "山竹": 5587, "栗子": 5588, "杏仁": 5589, "果树": 5590, "松子": 5591, "瓜子": 5592, "棉花": 5593, "高粱": 5594, "芹菜": 5595, "韭菜": 5596, "豆角": 5597, "丝瓜": 5598, "甜瓜": 5599, "哈密瓜": 5600, "加班": 5601, "简洁": 5602, "找准": 5603, "员工": 5604, "降低成本": 5605, "市场调研": 5606, "战略规划": 5607, "路演": 5608, "披露": 5609, "本地化": 5610, "组织变革": 5611, "导向": 5612, "招聘": 5613, "多渠道": 5614, "赋能": 5615, "推广": 5616, "危机": 5617, "触达": 5618, "留存": 5619, "突出重点": 5620, "猜": 5621, "她": 5622, "分支": 5623, "从来": 5624, "至少": 5625, "-": 5626, "单独": 5627, "蟾蜍": 5628, "水禽": 5629, "小鸟": 5630, "躺": 5631, "群": 5632, "钻": 5633, "轻": 5634, "毕业典礼": 5635, "桌游": 5636, "密室": 5637, "剧本": 5638, "商店": 5639, "进": 5640, "无悔": 5641, "深思熟虑": 5642, "早睡早起": 5643, "度过": 5644, "变老": 5645, "烤": 5646, "担担面": 5647, "兰州": 5648, "小面": 5649, "热干面": 5650, "炸酱面": 5651, "炸酱": 5652, "刀削面": 5653, "成片": 5654, "烩面": 5655, "牛肉面": 5656, "排骨面": 5657, "炒面": 5658, "咖喱饭": 5659, "咖喱鸡": 5660, "盖浇饭": 5661, "浇上": 5662, "煲仔饭": 5663, "腊味": 5664, "牛肉汤": 5665, "冬至": 5666, "第二个": 5667, "白天": 5668, "笛子": 5669, "围棋": 5670, "麻将": 5671, "陶瓷": 5672, "风好": 5673, "汗水": 5674, "真话": 5675, "万能": 5676, "听的歌": 5677, "剪头发": 5678, "拔": 5679, "生存": 5680, "有抗": 5681, "赢": 5682, "中学": 5683, "实现目标": 5684, "个性特征": 5685, "优缺点": 5686, "不断进步": 5687, "独立自主": 5688, "不证": 5689, "自明": 5690, "片面": 5691, "资格": 5692, "本性": 5693, "内心世界": 5694, "社会关系": 5695, "受欢迎": 5696, "共同努力": 5697, "代代相传": 5698, "改变现状": 5699, "退化": 5700, "标准化": 5701, "理念": 5702, "结构性": 5703, "人与自然": 5704, "环境优美": 5705, "振兴": 5706, "农村": 5707, "新型": 5708, "以人为本": 5709, "共同富裕": 5710, "全体": 5711, "先进": 5712, "强国": 5713, "美好生活": 5714, "奋斗目标": 5715, "协助": 5716, "上诉": 5717, "上级法院": 5718, "违约金": 5719, "违反": 5720, "罚金": 5721, "不偏不倚": 5722, "享有": 5723, "同等": 5724, "当家作主": 5725, "和睦": 5726, "热爱祖国": 5727, "没多久": 5728, "烹饪": 5729, "三点": 5730, "GDP": 5731, "GNP": 5732, "国民": 5733, "CPI": 5734, "PPI": 5735, "生产者": 5736, "通货膨胀": 5737, "通货紧缩": 5738, "兑换": 5739, "单利": 5740, "评分": 5741, "分数": 5742, "信用等级": 5743, "级别": 5744, "符合": 5745, "欠": 5746, "增值": 5747, "消费税": 5748, "关税": 5749, "印花税": 5750, "人寿保险": 5751, "意外保险": 5752, "财产保险": 5753, "车险": 5754, "按揭": 5755, "首付": 5756, "一家": 5757, "说说看": 5758, "这种": 5759, "太棒了": 5760, "有钱": 5761, "填补": 5762, "心坠": 5763, "一句": 5764, "喜剧片": 5765, "叙事性": 5766, "歌唱": 5767, "宣布": 5768, "其中": 5769, "惊人": 5770, "减肥": 5771, "沙拉": 5772, "搅拌": 5773, "钻石": 5774, "链有": 5775, "里海": 5776, "尼罗河": 5777, "马尔代夫": 5778, "冰岛": 5779, "北大西洋": 5780, "埃及": 5781, "啥": 5782, "贫血": 5783, "血红蛋白": 5784, "癌症": 5785, "精神分裂": 5786, "一个点": 5787, "接纳": 5788, "变为": 5789, "牙医": 5790, "一目了然": 5791, "一眼": 5792, "看清楚": 5793, "一言九鼎": 5794, "分量": 5795, "一诺千金": 5796, "一箭双雕": 5797, "一石二鸟": 5798, "一掷百万": 5799, "到处": 5800, "万紫千红": 5801, "花色繁多": 5802, "心花怒放": 5803, "非常高兴": 5804, "心旷神怡": 5805, "心情舒畅": 5806, "心平气和": 5807, "胸有成竹": 5808, "心满意足": 5809, "黑洞": 5810, "连光": 5811, "白矮星": 5812, "末期": 5813, "脉冲星": 5814, "尘埃": 5815, "暗": 5816, "引力波": 5817, "涟漪": 5818, "虫": 5819, "通道": 5820, "相对论": 5821, "微观世界": 5822, "超弦": 5823, "光子": 5824, "中微子": 5825, "利用光": 5826, "呼吸作用": 5827, "大规模": 5828, "燃料电池": 5829, "化学能": 5830, "光能": 5831, "抗生素": 5832, "冥王星": 5833, "新星": 5834, "状": 5835, "二维": 5836, "收养": 5837, "深浅": 5838, "铺平": 5839, "然后": 5840, "随手": 5841, "水龙头": 5842, "节水": 5843, "花洒": 5844, "节约用电": 5845, "随手关灯": 5846, "灯泡": 5847, "用纸": 5848, "双面": 5849, "手帕": 5850, "纸巾": 5851, "可回收": 5852, "除甲醛": 5853, "种绿植": 5854, "换水": 5855, "喂食": 5856, "洗菜": 5857, "再开": 5858, "火热": 5859, "下锅": 5860, "煮饭": 5861, "洗米": 5862, "按下": 5863, "电饭煲": 5864, "开关": 5865, "水开": 5866, "下面": 5867, "捞出": 5868, "煮粥": 5869, "泡茶": 5870, "先洗": 5871, "加奶": 5872, "刀要": 5873, "锋利": 5874, "洗碗": 5875, "先扫后": 5876, "从里到外": 5877, "玻璃": 5878, "报税": 5879, "看病": 5880, "就诊": 5881, "互相配合": 5882, "共同进步": 5883, "砂纸": 5884, "老鼠": 5885, "心中": 5886, "记": 5887, "浮": 5888, "松间": 5889, "照": 5890, "清泉石": 5891, "上流": 5892, "闻": 5893, "变化率": 5894, "多维": 5895, "低买高卖": 5896, "称": 5897, "杀手": 5898, "僵尸": 5899, "凯尔特": 5900, "两种": 5901, "休眠": 5902, "一朵花": 5903, "脆弱": 5904, "强制性": 5905, "州长": 5906, "按钮": 5907, "发邮件": 5908, "里交": 5909, "符合条件": 5910, "否极泰来": 5911, "一举两全": 5912, "两利": 5913, "有利": 5914, "两便": 5915, "两获": 5916, "满载而归": 5917, "不虚此行": 5918, "白来": 5919, "大开眼界": 5920, "见识": 5921, "采取": 5922, "道歉": 5923, "歧视": 5924, "独立性": 5925, "转机": 5926, "刚入": 5927, "考": 5928, "辩论": 5929, "摩尔": 5930, "女人": 5931, "细胞学": 5932, "蓝色": 5933, "倾斜": 5934, "星座": 5935, "古人": 5936, "连成": 5937, "环流": 5938, "海洋性气候": 5939, "大陆性气候": 5940, "草原气候": 5941, "副热带": 5942, "寒带": 5943, "极地": 5944, "高原气候": 5945, "山地气候": 5946, "地形": 5947, "季风气候": 5948, "海陆": 5949, "热力": 5950, "退换货": 5951, "小球": 5952, "越过": 5953, "滑翔": 5954, "跳伞": 5955, "高速": 5956, "投篮": 5957, "打网球": 5958, "咏春拳": 5959, "体育": 5960, "域名": 5961, "我来": 5962, "事项": 5963, "驾驶": 5964, "无人机": 5965, "无人驾驶": 5966, "飞行器": 5967, "3D": 5968, "逐层": 5969, "比特": 5970, "币": 5971, "NFT": 5972, "同质化": 5973, "代币": 5974, "Web3": 5975, "下一代": 5976, "超级计算机": 5977, "计算能力": 5978, "数据挖掘": 5979, "得出结论": 5980, "数据系统": 5981, "数据仓库": 5982, "历史数据": 5983, "网络系统": 5984, "密码学": 5985, "白帽": 5986, "合法": 5987, "恶意程序": 5988, "木马": 5989, "伪装成": 5990, "防火墙": 5991, "防护系统": 5992, "VPN": 5993, "CDN": 5994, "无线网络": 5995, "无线通信": 5996, "网站": 5997, "社交互动": 5998, "电子商务": 5999, "商业活动": 6000, "智能家居": 6001, "在线教育": 6002, "视频会议": 6003, "SDK": 6004, "工具包": 6005, "IDE": 6006, "Kubernetes": 6007, "编排": 6008, "客户端": 6009, "界面": 6010, "前后": 6011, "CI": 6012, "CD": 6013, "容灾": 6014, "灾难": 6015, "副本": 6016, "负载": 6017, "多台": 6018, "临时": 6019, "消息中间件": 6020, "防止": 6021, "第": 6022, "霾": 6023, "供应商": 6024, "表达清晰": 6025, "股东": 6026, "共识": 6027, "发自内心": 6028, "成语": 6029, "张仲景": 6030, "医圣": 6031, "诗仙": 6032, "杜甫": 6033, "诗圣": 6034, "ahmal": 6035, "双关语": 6036, "是从": 6037, "拍击": 6038, "ai": 6039, "致力于": 6040, "具有": 6041, "编写": 6042, "造物者": 6043, "永久": 6044, "恰恰相反": 6045, "动": 6046, "弯腰": 6047, "会笑": 6048, "很蠢": 6049, "一旦": 6050, "打架": 6051, "战斗": 6052, "因此": 6053, "谈不上": 6054, "eliza": 6055, "众所周知": 6056, "愚弄": 6057, "交谈": 6058, "chatterbot": 6059, "喋喋不休": 6060, "终": 6061, "自创": 6062, "普及": 6063, "穿鞋": 6064, "野心": 6065, "尤其": 6066, "主观性": 6067, "想像": 6068, "Mac": 6069, "OS": 6070, "IBM": 6071, ":": 6072, "aiml": 6073, "延续": 6074, "没长": 6075, "长好": 6076, "尚小": 6077, "失灵": 6078, "胎生": 6079, "哺乳": 6080, "腹部": 6081, "爬行": 6082, "冷血动物": 6083, "水陆": 6084, "冷血": 6085, "六条": 6086, "外骨骼": 6087, "分节": 6088, "附肢": 6089, "触手": 6090, "水生动物": 6091, "棘状": 6092, "突起": 6093, "恒温动物": 6094, "恒定": 6095, "变温动物": 6096, "以肉": 6097, "食": 6098, "食草动物": 6099, "杂食": 6100, "既": 6101, "候鸟": 6102, "留鸟": 6103, "鸣禽": 6104, "涉禽": 6105, "浅水": 6106, "游禽": 6107, "攀禽": 6108, "陆禽": 6109, "走禽": 6110, "海鸟": 6111, "淡水鱼": 6112, "海水鱼": 6113, "海水": 6114, "热带鱼": 6115, "深海鱼": 6116, "深海": 6117, "鲨鱼": 6118, "软骨鱼类": 6119, "鲸鱼": 6120, "海狮": 6121, "外耳": 6122, "海象": 6123, "长牙": 6124, "海牛": 6125, "河马": 6126, "水生": 6127, "鳄鱼": 6128, "四肢": 6129, "青蛙": 6130, "粗糙": 6131, "蝾螈": 6132, "大鲵": 6133, "蝎子": 6134, "螃蟹": 6135, "钳子": 6136, "龙虾": 6137, "章鱼": 6138, "鱿鱼": 6139, "十条": 6140, "水蛭": 6141, "吸血": 6142, "海星": 6143, "五角星": 6144, "海胆": 6145, "海参": 6146, "珊瑚": 6147, "水母": 6148, "海绵": 6149, "亚种": 6150, "鲸": 6151, "丹顶鹤": 6152, "白海豚": 6153, "沿海": 6154, "长臂猿": 6155, "灵长类": 6156, "穿山甲": 6157, "雪豹": 6158, "野骆驼": 6159, "普氏": 6160, "麋鹿": 6161, "鹿类": 6162, "黑熊": 6163, "熊类": 6164, "棕熊": 6165, "体型": 6166, "鸭嘴兽": 6167, "食蚁兽": 6168, "树懒": 6169, "豪猪": 6170, "有长": 6171, "松鼠": 6172, "长耳朵": 6173, "龙": 6174, "貂": 6175, "水獭": 6176, "黄鼠狼": 6177, "果子狸": 6178, "灵猫科": 6179, "獾": 6180, "狐狸": 6181, "豺": 6182, "鬣狗": 6183, "花豹": 6184, "美洲豹": 6185, "美洲": 6186, "奔跑": 6187, "耐劳": 6188, "骡子": 6189, "偶蹄": 6190, "羊": 6191, "杂食性": 6192, "鹅": 6193, "鸽子": 6194, "猫头鹰": 6195, "老鹰": 6196, "秃鹫": 6197, "食腐": 6198, "仙鹤": 6199, "长寿": 6200, "孔雀": 6201, "开屏": 6202, "天鹅": 6203, "水鸟": 6204, "大雁": 6205, "类": 6206, "海鸥": 6207, "啄木鸟": 6208, "啄": 6209, "杜鹃": 6210, "麻雀": 6211, "燕子": 6212, "喜鹊": 6213, "报喜": 6214, "乌鸦": 6215, "黑色": 6216, "画眉": 6217, "百灵": 6218, "优美": 6219, "四川": 6220, "陕西": 6221, "甘肃": 6222, "国宝": 6223, "一千八百": 6224, "多只": 6225, "熊科": 6226, "二十年": 6227, "幼崽多": 6228, "几百": 6229, "体长": 6230, "三米": 6231, "野猪": 6232, "羊绒": 6233, "功能性": 6234, "几千只": 6235, "长到": 6236, "五米": 6237, "小熊猫": 6238, "亲戚": 6239, "同一个": 6240, "科": 6241, "桉树": 6242, "不太会": 6243, "毛是": 6244, "六米": 6245, "几块": 6246, "七块": 6247, "六吨": 6248, "象住": 6249, "亚洲象": 6250, "雌象": 6251, "二十二个": 6252, "雌狮": 6253, "角马": 6254, "斑马": 6255, "一百二十": 6256, "只能": 6257, "中小型": 6258, "狼住": 6259, "很广": 6260, "狼群": 6261, "狼会": 6262, "嚎叫": 6263, "几百个": 6264, "几十个": 6265, "毛": 6266, "箱子": 6267, "打呼噜": 6268, "纸箱": 6269, "笔": 6270, "捕猎": 6271, "摇尾巴": 6272, "转圈": 6273, "刨地": 6274, "藏": 6275, "歪头": 6276, "打哈欠": 6277, "流口水": 6278, "追": 6279, "抬腿": 6280, "水里": 6281, "鳃": 6282, "有鳍": 6283, "鳔": 6284, "浮力": 6285, "成群": 6286, "跳出": 6287, "侧线": 6288, "水流": 6289, "变色": 6290, "猎物": 6291, "同伴": 6292, "内脏": 6293, "会拉出": 6294, "气味": 6295, "蜜露": 6296, "蜻蜓": 6297, "点水": 6298, "萤火虫": 6299, "结网": 6300, "蜘蛛丝": 6301, "有多强": 6302, "比钢": 6303, "有多慢": 6304, "几毫米": 6305, "缺氧": 6306, "少年": 6307, "开头": 6308, "抓人": 6309, "停顿": 6310, "城": 6311, "消耗": 6312, "几岁": 6313, "轻薄": 6314, "配": 6315, "短袖": 6316, "短裤": 6317, "裙子": 6318, "长裤": 6319, "棉衣": 6320, "运动鞋": 6321, "婚礼": 6322, "葬礼": 6323, "生日派对": 6324, "年会": 6325, "同学聚会": 6326, "家庭聚会": 6327, "参加考试": 6328, "体育赛事": 6329, "纪念日": 6330, "晚宴": 6331, "长辈": 6332, "晚辈": 6333, "平辈": 6334, "男性": 6335, "情侣": 6336, "相亲": 6337, "入职": 6338, "退休": 6339, "返校": 6340, "开学": 6341, "开学典礼": 6342, "校庆": 6343, "运动会": 6344, "汇演": 6345, "服装": 6346, "朗诵": 6347, "花艺": 6348, "中式服装": 6349, "品酒": 6350, "登山服": 6351, "潜水服": 6352, "柔道服": 6353, "篮球服": 6354, "台球": 6355, "竞穿": 6356, "真人": 6357, "CS": 6358, "摩托": 6359, "狗拉雪橇": 6360, "电源线": 6361, "插好": 6362, "蓝屏": 6363, "不行": 6364, "卡": 6365, "垃圾文件": 6366, "网线": 6367, "音频设备": 6368, "显示器": 6369, "连接线": 6370, "很响": 6371, "烫": 6372, "过热": 6373, "系统日志": 6374, "启动项": 6375, "驱动程序": 6376, "电脑系统": 6377, "磁盘": 6378, "管理工具": 6379, "云盘": 6380, "移动硬盘": 6381, "系统还原": 6382, "全盘": 6383, "固态": 6384, "硬盘": 6385, "更换": 6386, "没电": 6387, "发热": 6388, "手机卡": 6389, "静音": 6390, "碎": 6391, "维修": 6392, "店换": 6393, "进水": 6394, "立即": 6395, "关机": 6396, "擦干": 6397, "闪退": 6398, "打不开": 6399, "清除": 6400, "卡顿": 6401, "用云": 6402, "重置": 6403, "管理权限": 6404, "锁屏": 6405, "解锁": 6406, "SIM": 6407, "存储卡": 6408, "原装": 6409, "带个": 6410, "装个": 6411, "贴膜": 6412, "贴个": 6413, "钢化": 6414, "膜": 6415, "转接头": 6416, "录屏": 6417, "用录": 6418, "屏": 6419, "长截屏": 6420, "用长": 6421, "迁移": 6422, "旧": 6423, "字体": 6424, "字体大小": 6425, "来电": 6426, "游戏软件": 6427, "计算器": 6428, "剪辑": 6429, "运气": 6430, "真不错": 6431, "看来": 6432, "幸运之神": 6433, "眷顾": 6434, "这份": 6435, "做好事": 6436, "好歌": 6437, "陶醉": 6438, "读到": 6439, "精力充沛": 6440, "好觉": 6441, "高效率": 6442, "发了": 6443, "一趟": 6444, "常给": 6445, "找点": 6446, "能行": 6447, "简约": 6448, "安详": 6449, "真情": 6450, "造福人类": 6451, "多元": 6452, "和平共处": 6453, "公平正义": 6454, "充满希望": 6455, "情话": 6456, "祝你幸福": 6457, "每分": 6458, "看不懂": 6459, "罢了": 6460, "作": 6461, "美味": 6462, "晦涩": 6463, "YOLO": 6464, "只会活": 6465, "听来": 6466, "从未": 6467, "活过": 6468, "鲜得": 6469, "吃喝": 6470, "独有": 6471, "叫做": 6472, "水炸至": 6473, "清蒸鱼": 6474, "抹": 6475, "八分钟": 6476, "红烧鱼": 6477, "两面": 6478, "黄加": 6479, "糖醋鱼": 6480, "鱼炸至": 6481, "煸": 6482, "起皱": 6483, "青椒": 6484, "过油加": 6485, "切丝": 6486, "泡水": 6487, "清炒": 6488, "时蔬": 6489, "洗净": 6490, "拍碎加": 6491, "发焯": 6492, "白切": 6493, "姜葱": 6494, "口水鸡": 6495, "辣子鸡": 6496, "干辣椒": 6497, "黄焖": 6498, "香菇": 6499, "鸭肉": 6500, "烤鸭": 6501, "至": 6502, "金红": 6503, "盐水鸭": 6504, "卤鸭": 6505, "卤料": 6506, "酱鸭": 6507, "烧鸭": 6508, "叫花": 6509, "鸡裹": 6510, "泥": 6511, "东坡肉": 6512, "东坡": 6513, "肘子": 6514, "肘加": 6515, "梅菜": 6516, "扣肉": 6517, "加梅菜": 6518, "粉蒸肉": 6519, "裹": 6520, "白肉": 6521, "夫妻": 6522, "肺片": 6523, "牛杂": 6524, "阳春面": 6525, "打卤面": 6526, "卤汁": 6527, "瘦肉粥": 6528, "米粥": 6529, "瘦肉": 6530, "八宝粥": 6531, "杂粮": 6532, "莲子汤": 6533, "莲子": 6534, "冰糖": 6535, "绿豆": 6536, "红豆汤": 6537, "鸡汤": 6538, "鸡焯": 6539, "鱼汤": 6540, "黄": 6541, "胡椒": 6542, "蛋花汤": 6543, "蛋汤": 6544, "初五": 6545, "赛龙舟": 6546, "祖先": 6547, "踏青": 6548, "扫墓": 6549, "正月十五": 6550, "元宵": 6551, "赏": 6552, "花灯": 6553, "九月初": 6554, "赏菊": 6555, "七夕节": 6556, "七月": 6557, "初七": 6558, "腊八节": 6559, "初八": 6560, "腊八粥": 6561, "二十四节气": 6562, "吃饺子": 6563, "农历年": 6564, "二十五日": 6565, "二月": 6566, "十四日": 6567, "第四个": 6568, "星期四": 6569, "母亲节": 6570, "父亲节": 6571, "第三个": 6572, "九月": 6573, "十日": 6574, "八日": 6575, "四日": 6576, "四月": 6577, "光棍节": 6578, "十一日": 6579, "二十四日": 6580, "跨": 6581, "夜": 6582, "立春": 6583, "降雨": 6584, "惊蛰": 6585, "春雷": 6586, "惊醒": 6587, "春分": 6588, "明朗": 6589, "谷雨": 6590, "雨量": 6591, "利于": 6592, "立夏": 6593, "夏季": 6594, "小满": 6595, "籽粒": 6596, "饱满": 6597, "芒种": 6598, "有芒": 6599, "夏至": 6600, "小暑": 6601, "炎热": 6602, "大暑": 6603, "立秋": 6604, "秋季": 6605, "处暑": 6606, "暑气": 6607, "白露": 6608, "转凉": 6609, "秋分": 6610, "寒露": 6611, "霜露": 6612, "立冬": 6613, "冬季": 6614, "小雪": 6615, "大雪": 6616, "小寒": 6617, "大寒": 6618, "天干地支": 6619, "纪年": 6620, "五行": 6621, "金木水火土": 6622, "阴阳": 6623, "风水": 6624, "传统医学": 6625, "按摩疗法": 6626, "国画": 6627, "京剧": 6628, "戏曲": 6629, "曲艺": 6630, "评书": 6631, "说书": 6632, "剪纸": 6633, "刺绣": 6634, "工艺品": 6635, "茶道": 6636, "花道": 6637, "香道": 6638, "品香": 6639, "汉服": 6640, "旗袍": 6641, "唐装": 6642, "结": 6643, "手工艺品": 6644, "灯笼": 6645, "照明": 6646, "春联": 6647, "福字": 6648, "装有": 6649, "信封": 6650, "花椒": 6651, "八角": 6652, "桂皮": 6653, "未": 6654, "乌龙茶": 6655, "普洱茶": 6656, "云南": 6657, "白茶": 6658, "花茶": 6659, "功夫茶": 6660, "器具": 6661, "紫砂壶": 6662, "宜兴": 6663, "茶壶": 6664, "盖碗": 6665, "盘子": 6666, "茶巾": 6667, "宠": 6668, "装饰品": 6669, "茶席": 6670, "茶会": 6671, "酿造酒": 6672, "米酒": 6673, "用米": 6674, "药酒": 6675, "果酒": 6676, "麦芽": 6677, "葡萄酒": 6678, "香槟": 6679, "起泡": 6680, "威士忌": 6681, "白兰地": 6682, "伏特加": 6683, "朗姆酒": 6684, "甘蔗": 6685, "清酒": 6686, "烧酒": 6687, "干什么": 6688, "几号": 6689, "我困": 6690, "要紧": 6691, "没考": 6692, "着凉": 6693, "男": 6694, "性别": 6695, "之分": 6696, "沿途": 6697, "之母": 6698, "就是说": 6699, "一去不复返": 6700, "活到老": 6701, "学到老": 6702, "万万不能": 6703, "足矣": 6704, "脾气": 6705, "找我聊": 6706, "待": 6707, "星期": 6708, "几": 6709, "搜": 6710, "搜看": 6711, "新技能": 6712, "一般般": 6713, "多多": 6714, "起晚": 6715, "睡个": 6716, "懒觉": 6717, "鸟儿": 6718, "有虫": 6719, "全身": 6720, "洗完": 6721, "收拾": 6722, "整洁": 6723, "使人": 6724, "写日记": 6725, "陶冶情操": 6726, "写字": 6727, "练字": 6728, "静心": 6729, "逗猫": 6730, "电视剧": 6731, "追剧": 6732, "听播客": 6733, "时事": 6734, "退掉": 6735, "刷": 6736, "讲信用": 6737, "有效率": 6738, "减脂": 6739, "HIIT": 6740, "燃脂": 6741, "普拉提": 6742, "泡温泉": 6743, "解乏": 6744, "保养": 6745, "染": 6746, "发色": 6747, "美甲": 6748, "一门": 6749, "断舍": 6750, "叫车": 6751, "坐地铁": 6752, "地铁": 6753, "准时": 6754, "坐飞机": 6755, "坐火车": 6756, "火车": 6757, "氛围": 6758, "雅致": 6759, "很爽": 6760, "健身房": 6761, "馆": 6762, "滑雪场": 6763, "繁华": 6764, "激烈": 6765, "看牙": 6766, "保护视力": 6767, "治病": 6768, "温经": 6769, "罐": 6770, "祛湿": 6771, "活血": 6772, "排毒": 6773, "保健": 6774, "杀菌": 6775, "尿液": 6776, "标志物": 6777, "预知": 6778, "喝点": 6779, "钥匙": 6780, "钱包": 6781, "别忘了": 6782, "远近": 6783, "交通工具": 6784, "拿手": 6785, "美好事物": 6786, "益脑": 6787, "养好": 6788, "养活": 6789, "要学": 6790, "不太熟": 6791, "题型": 6792, "会议": 6793, "客户资料": 6794, "紧急": 6795, "人和事": 6796, "善事": 6797, "力所能及": 6798, "散散步": 6799, "昨天": 6800, "辜负": 6801, "对得起": 6802, "一点点": 6803, "变强": 6804, "变好": 6805, "第一位": 6806, "更棒": 6807, "冤枉": 6808, "欺负": 6809, "被忽视": 6810, "冷落": 6811, "排挤": 6812, "嘲笑": 6813, "经得起": 6814, "试探": 6815, "低调": 6816, "远见": 6817, "恒心": 6818, "基石": 6819, "力是": 6820, "反弹": 6821, "应变": 6822, "理解能力": 6823, "有共情": 6824, "共情": 6825, "社交能力": 6826, "无私": 6827, "精益求精": 6828, "警觉": 6829, "分寸": 6830, "认同": 6831, "大度": 6832, "克制": 6833, "淡定": 6834, "宁静": 6835, "定力": 6836, "自在心": 6837, "顽强": 6838, "坚韧": 6839, "刚强": 6840, "不忘": 6841, "正心": 6842, "天下兴亡": 6843, "先天下之忧而忧": 6844, "先忧后乐": 6845, "胸怀": 6846, "后天下之乐而乐": 6847, "后乐": 6848, "苟利国家生死以": 6849, "利国": 6850, "岂因祸福避趋之": 6851, "避": 6852, "祸福": 6853, "路漫漫其修远兮": 6854, "漫漫": 6855, "历程": 6856, "吾将上下而求索": 6857, "求索": 6858, "长风破浪": 6859, "破浪": 6860, "直挂": 6861, "云帆济": 6862, "济": 6863, "海内存知己": 6864, "天涯若比邻": 6865, "比邻": 6866, "有莫愁": 6867, "前路": 6868, "无知己": 6869, "不识君": 6870, "识君": 6871, "深厚": 6872, "情谊": 6873, "送情": 6874, "真挚": 6875, "外界": 6876, "施加": 6877, "负担": 6878, "不可逾越": 6879, "依据": 6880, "状况": 6881, "急需解决": 6882, "痒": 6883, "爽点": 6884, "亮点": 6885, "卖点": 6886, "衰落": 6887, "兴旺发达": 6888, "萧条": 6889, "不景气": 6890, "不断前进": 6891, "变多": 6892, "变小": 6893, "恶化": 6894, "更差": 6895, "高级": 6896, "降级": 6897, "低级": 6898, "不断改进": 6899, "颠覆": 6900, "彻底改变": 6901, "革新": 6902, "更新换代": 6903, "革命": 6904, "根本性": 6905, "突变": 6906, "渐变": 6907, "量变": 6908, "质变": 6909, "转折": 6910, "天花板": 6911, "壁垒": 6912, "阻碍": 6913, "护城河": 6914, "规模化": 6915, "专业化": 6916, "涉及": 6917, "走向世界": 6918, "本土化": 6919, "全球化": 6920, "一体化": 6921, "技术改造": 6922, "信息化": 6923, "信息技术": 6924, "网络化": 6925, "生态化": 6926, "闲置": 6927, "要素": 6928, "当代": 6929, "损害": 6930, "主体": 6931, "协商": 6932, "商量": 6933, "达成协议": 6934, "揭发": 6935, "违法行为": 6936, "指出": 6937, "缺点错误": 6938, "给予帮助": 6939, "表态": 6940, "弃权": 6941, "投票权": 6942, "否决": 6943, "代做": 6944, "见证": 6945, "作证": 6946, "证实": 6947, "商定": 6948, "条款": 6949, "附件": 6950, "补充协议": 6951, "解除": 6952, "违约责任": 6953, "赔偿金": 6954, "补偿金": 6955, "抚慰金": 6956, "深化改革": 6957, "从严治党": 6958, "党的建设": 6959, "最靠": 6960, "人来": 6961, "随便": 6962, "想开": 6963, "放假": 6964, "不卖": 6965, "取关": 6966, "打印文件": 6967, "大件": 6968, "小件": 6969, "归类": 6970, "备菜": 6971, "顺序": 6972, "节省时间": 6973, "非必要": 6974, "读书笔记": 6975, "几句": 6976, "腰背": 6977, "双脚": 6978, "平放": 6979, "做得好": 6980, "并列": 6981, "后续": 6982, "负责人": 6983, "难度": 6984, "集中处理": 6985, "中央银行": 6986, "盈利": 6987, "政策性": 6988, "政策": 6989, "存入": 6990, "原始": 6991, "质押": 6992, "动产": 6993, "不良贷款": 6994, "拨备": 6995, "资本": 6996, "充足率": 6997, "银行资本": 6998, "准备金": 6999, "公开市场": 7000, "再贴现": 7001, "贴现": 7002, "基准利率": 7003, "LPR": 7004, "报价": 7005, "MLF": 7006, "中期": 7007, "SLF": 7008, "常备": 7009, "逆": 7010, "回购": 7011, "正回购": 7012, "国债": 7013, "企业债": 7014, "可转债": 7015, "市值": 7016, "公司股票": 7017, "总价值": 7018, "市盈率": 7019, "市净率": 7020, "股息": 7021, "分红": 7022, "红利": 7023, "利润分配": 7024, "涨跌": 7025, "停": 7026, "牛市": 7027, "熊市": 7028, "下跌": 7029, "成交量": 7030, "换手率": 7031, "活跃": 7032, "K": 7033, "均线": 7034, "平均线": 7035, "用图表": 7036, "基本面": 7037, "成长性": 7038, "ETF": 7039, "LOF": 7040, "开放式": 7041, "QDII": 7042, "境内": 7043, "QFII": 7044, "境外": 7045, "公募": 7046, "VC": 7047, "风险投资": 7048, "PE": 7049, "股权": 7050, "IPO": 7051, "首次": 7052, "收购": 7053, "破产": 7054, "资不抵债": 7055, "清算": 7056, "退市": 7057, "摘牌": 7058, "监管": 7059, "监督管理": 7060, "风控": 7061, "财务报告": 7062, "负债表": 7063, "利润表": 7064, "现金流量": 7065, "所有者": 7066, "流动资产": 7067, "固定资产": 7068, "无形资产": 7069, "实物": 7070, "形态": 7071, "内要": 7072, "长期负债": 7073, "花费": 7074, "净利": 7075, "税金": 7076, "房贷": 7077, "车贷": 7078, "助学": 7079, "上学": 7080, "罚息": 7081, "展期": 7082, "延长": 7083, "转贷": 7084, "银行贷款": 7085, "套房": 7086, "第二套": 7087, "房子": 7088, "限购": 7089, "限贷": 7090, "限售": 7091, "限价": 7092, "普惠": 7093, "科技": 7094, "网上银行": 7095, "非银行": 7096, "好开心": 7097, "好想你": 7098, "我帅": 7099, "灰心": 7100, "没用": 7101, "黑暗": 7102, "一面": 7103, "分手": 7104, "白费": 7105, "天天开心": 7106, "好烦": 7107, "大大的": 7108, "吹牛": 7109, "吃醋": 7110, "尽可能": 7111, "愧": 7112, "耻辱": 7113, "高度": 7114, "无奈": 7115, "..": 7116, "孤单": 7117, "网上聊天": 7118, "抱怨": 7119, "尴尬": 7120, "富有": 7121, "醉": 7122, "厌倦": 7123, "这些": 7124, "逗乐": 7125, "感到高兴": 7126, "以前": 7127, "唯一标准": 7128, "独一无二": 7129, "细腻": 7130, "最白": 7131, "最青": 7132, "最清": 7133, "最明": 7134, "缘分": 7135, "来生": 7136, "一整天": 7137, "笑一笑": 7138, "难得": 7139, "最舒服": 7140, "睡不着": 7141, "知足常乐": 7142, "前方": 7143, "效率高": 7144, "精神饱满": 7145, "活力充沛": 7146, "干劲": 7147, "干劲十足": 7148, "钻劲": 7149, "钻研": 7150, "狠劲": 7151, "狠": 7152, "有妙": 7153, "妙不可言": 7154, "有神": 7155, "精神状态": 7156, "仙劲": 7157, "飘飘欲仙": 7158, "佛劲": 7159, "心如止水": 7160, "有禅劲": 7161, "禅意": 7162, "有道": 7163, "有儒劲": 7164, "温文尔雅": 7165, "有侠": 7166, "侠义": 7167, "心肠": 7168, "有义": 7169, "义薄云天": 7170, "有情": 7171, "情深义重": 7172, "有爱劲": 7173, "爱意": 7174, "心劲": 7175, "有诚劲": 7176, "诚心诚意": 7177, "真劲": 7178, "真心真意": 7179, "有善": 7180, "有美劲": 7181, "很差": 7182, "差到": 7183, "心碎": 7184, "心寒": 7185, "心烦": 7186, "心慌": 7187, "心虚": 7188, "坦诚": 7189, "心急": 7190, "心焦": 7191, "心闷": 7192, "透透气": 7193, "心堵": 7194, "乱": 7195, "理一理": 7196, "空": 7197, "空虚": 7198, "心冷": 7199, "心死": 7200, "心灰": 7201, "心丧": 7202, "丧": 7203, "心废": 7204, "废物": 7205, "心崩": 7206, "心塌": 7207, "塌下来": 7208, "接住": 7209, "心散": 7210, "心开": 7211, "心关": 7212, "心扉": 7213, "心窗": 7214, "窗户": 7215, "如水": 7216, "心风": 7217, "随风而去": 7218, "心云": 7219, "云淡风轻": 7220, "心雨": 7221, "雨过天晴": 7222, "心雷": 7223, "平静下来": 7224, "心电": 7225, "心影": 7226, "阴影": 7227, "心声": 7228, "心想": 7229, "心念": 7230, "一念之间": 7231, "对症下药": 7232, "需心": 7233, "药医": 7234, "心医": 7235, "一步步": 7236, "四次": 7237, "大话西游": 7238, "带泪": 7239, "动作片": 7240, "碟中谍": 7241, "系列": 7242, "科幻片": 7243, "震撼": 7244, "悬疑片": 7245, "烧脑": 7246, "动画片": 7247, "宫崎骏": 7248, "经典之作": 7249, "脉动": 7250, "一首歌": 7251, "一首": 7252, "轻音乐": 7253, "好听": 7254, "幻觉": 7255, "选拔": 7256, "动画": 7257, "漫画": 7258, "合称": 7259, "某人": 7260, "榜": 7261, "打榜": 7262, "投票": 7263, "强烈推荐": 7264, "新买": 7265, "某家店": 7266, "博客": 7267, "关注度": 7268, "真本事": 7269, "美丑": 7270, "发笑": 7271, "好笑": 7272, "包是": 7273, "潮流": 7274, "热门话题": 7275, "故意": 7276, "瓜是": 7277, "八卦新闻": 7278, "吃瓜": 7279, "看热闹": 7280, "官宣": 7281, "官宣是": 7282, "塌": 7283, "房": 7284, "塌房": 7285, "沉迷": 7286, "放不下": 7287, "抓住机会": 7288, "再次": 7289, "聚在一起": 7290, "一家人": 7291, "属于": 7292, "独自一人": 7293, "初次": 7294, "劳累": 7295, "时刻": 7296, "未知": 7297, "不骄不躁": 7298, "春节快乐": 7299, "新年快乐": 7300, "有情人终成眷属": 7301, "骗": 7302, "光荣": 7303, "青春永驻": 7304, "童心": 7305, "永存": 7306, "端午": 7307, "中秋": 7308, "国庆": 7309, "祖国": 7310, "重阳": 7311, "登高望远": 7312, "捣蛋": 7313, "圣诞快乐": 7314, "迎新": 7315, "拿来": 7316, "顺风": 7317, "顺水": 7318, "平平安安": 7319, "万象更新": 7320, "美满幸福": 7321, "顺心如意": 7322, "锦绣前程": 7323, "前程": 7324, "日益": 7325, "兴旺": 7326, "步步登高": 7327, "兴隆": 7328, "进宝": 7329, "招财": 7330, "满堂": 7331, "富贵荣华": 7332, "富贵花": 7333, "高照": 7334, "福星": 7335, "东来": 7336, "紫气": 7337, "抖擞精神": 7338, "活虎": 7339, "生龙": 7340, "生威": 7341, "虎虎": 7342, "虎跃龙腾": 7343, "望": 7344, "胜券在握": 7345, "名扬四海": 7346, "成业": 7347, "地久天长": 7348, "腾达飞黄": 7349, "直上青云": 7350, "直上": 7351, "扶摇": 7352, "冲天": 7353, "一飞": 7354, "一鸣": 7355, "拔萃": 7356, "超群": 7357, "鸡群": 7358, "鹤立": 7359, "群中": 7360, "卓尔": 7361, "鳌头独占": 7362, "一指": 7363, "首屈": 7364, "比伦": 7365, "无比": 7366, "造极登峰": 7367, "纯青": 7368, "炉火": 7369, "化入": 7370, "出神": 7371, "神工鬼斧": 7372, "工巧": 7373, "夺": 7374, "奂": 7375, "美轮": 7376, "美善": 7377, "尽尽": 7378, "美全": 7379, "十十": 7380, "缺无": 7381, "击可懈": 7382, "缝衣天": 7383, "食谱": 7384, "川鲁粤": 7385, "苏浙": 7386, "闽湘徽": 7387, "白开水": 7388, "油腻": 7389, "鸡胸肉": 7390, "减脂餐": 7391, "低脂肪": 7392, "增肌餐": 7393, "全麦": 7394, "午餐": 7395, "加菜": 7396, "晚餐": 7397, "宵夜": 7398, "吃宵夜": 7399, "吃水果": 7400, "喝牛奶": 7401, "一杯": 7402, "红肉": 7403, "红枣": 7404, "虾皮": 7405, "胡萝卜": 7406, "枸杞": 7407, "菊花茶": 7408, "胶原蛋白": 7409, "电是": 7410, "短缺": 7411, "处理器": 7412, "ChatterBot": 7413, "报酬": 7414, "在世界上": 7415, "褶": 7416, "花卷": 7417, "开切": 7418, "条": 7419, "馄饨": 7420, "揉团": 7421, "做饼": 7422, "压模": 7423, "粽叶": 7424, "卷成": 7425, "锥形": 7426, "放米": 7427, "包紧": 7428, "蒸熟": 7429, "膨松剂": 7430, "泡发": 7431, "煮沸": 7432, "豆腐脑": 7433, "压制": 7434, "豆皮": 7435, "腐竹": 7436, "粉条": 7437, "凉皮": 7438, "大米": 7439, "磨浆": 7440, "肠粉": 7441, "河粉": 7442, "切条": 7443, "春卷": 7444, "烧卖": 7445, "封": 7446, "锅贴": 7447, "封口": 7448, "小笼包": 7449, "汤包": 7450, "叉烧包": 7451, "叉烧": 7452, "奶黄包": 7453, "奶黄": 7454, "豆沙包": 7455, "豆沙": 7456, "肉包": 7457, "肉馅": 7458, "菜包": 7459, "包菜": 7460, "糖包": 7461, "糖馅": 7462, "葱油饼": 7463, "葱花": 7464, "折叠": 7465, "酱香": 7466, "开涂酱": 7467, "灌饼": 7468, "煎饼果子": 7469, "面糊": 7470, "摊开": 7471, "加蛋": 7472, "薄脆": 7473, "肉夹馍": 7474, "白吉馍": 7475, "卤肉": 7476, "泡馍": 7477, "馍": 7478, "碎加": 7479, "酸辣粉": 7480, "粉": 7481, "过桥米线": 7482, "加高": 7483, "蛋包饭": 7484, "饭团": 7485, "成团": 7486, "寿司": 7487, "便当": 7488, "装盒": 7489, "三明治": 7490, "汉堡": 7491, "肉饼": 7492, "披萨": 7493, "面饼": 7494, "涂酱": 7495, "加料": 7496, "意": 7497, "浓汤": 7498, "取汤": 7499, "火锅": 7500, "锅底": 7501, "开涮": 7502, "麻辣烫": 7503, "串串香": 7504, "料": 7505, "铁板烧": 7506, "铁板": 7507, "干锅": 7508, "炖菜": 7509, "水焖": 7510, "蒸菜": 7511, "蒸锅": 7512, "放锅里": 7513, "放锅": 7514, "炸菜": 7515, "放油": 7516, "里炸制": 7517, "烤菜": 7518, "凉菜": 7519, "食材切": 7520, "好加": 7521, "卤菜": 7522, "卤水": 7523, "酱菜": 7524, "酱汤": 7525, "腌菜": 7526, "香肠": 7527, "灌入": 7528, "肠衣": 7529, "松花蛋": 7530, "加碱": 7531, "咸鸭蛋": 7532, "豆腐乳": 7533, "蚕豆": 7534, "辣椒酱": 7535, "花生酱": 7536, "乳化": 7537, "番茄酱": 7538, "咖喱": 7539, "甜面酱": 7540, "辣酱": 7541, "豆豉": 7542, "粮食": 7543, "蚝油": 7544, "熬制": 7545, "虾酱": 7546, "鱼露": 7547, "自学能力": 7548, "先定": 7549, "充": 7550, "再列": 7551, "试错": 7552, "低质量": 7553, "学大": 7554, "学云": 7555, "自我介绍": 7556, "暴露": 7557, "多任务": 7558, "设": 7559, "偏离": 7560, "学不": 7561, "进去": 7562, "给出": 7563, "稍微": 7564, "超纲": 7565, "渐进": 7566, "做成": 7567, "更高": 7568, "五年": 7569, "季度": 7570, "口头": 7571, "书面": 7572, "山峰": 7573, "珠穆朗玛峰": 7574, "马里亚纳": 7575, "伊瓜苏": 7576, "安赫尔": 7577, "科罗拉多": 7578, "大峡谷": 7579, "半岛": 7580, "阿拉伯半岛": 7581, "马来群岛": 7582, "南北极": 7583, "纬线": 7584, "零度": 7585, "时区": 7586, "经度": 7587, "格林威治": 7588, "北端": 7589, "南大洋": 7590, "环绕": 7591, "黑海": 7592, "死海": 7593, "最低": 7594, "维多利亚湖": 7595, "苏必利尔湖": 7596, "密西西比河": 7597, "亚马逊河": 7598, "母亲河": 7599, "恒河": 7600, "圣河": 7601, "多瑙河": 7602, "流经": 7603, "莱茵河": 7604, "伏尔加河": 7605, "刚果河": 7606, "湄公河": 7607, "底格里斯河": 7608, "幼发拉底河": 7609, "阿尔卑斯山脉": 7610, "落基": 7611, "乌拉尔山脉": 7612, "乞力马扎罗山": 7613, "富士山": 7614, "泰山": 7615, "之": 7616, "首": 7617, "华山": 7618, "之险": 7619, "衡山": 7620, "之秀": 7621, "恒山": 7622, "之幽": 7623, "嵩山": 7624, "之中": 7625, "庐山": 7626, "峨眉山": 7627, "五台山": 7628, "九华山": 7629, "普陀山": 7630, "武当山": 7631, "龙虎山": 7632, "齐云山": 7633, "青城山": 7634, "阿拉伯": 7635, "戈壁": 7636, "塔克拉玛干沙漠": 7637, "卡拉哈里": 7638, "纳米布": 7639, "阿塔卡马": 7640, "莫哈维": 7641, "南极洲": 7642, "大堡礁": 7643, "加拉帕戈斯": 7644, "达尔文": 7645, "进化论": 7646, "复活节岛": 7647, "石像": 7648, "巴厘岛": 7649, "旅游胜地": 7650, "圣托": 7651, "里尼": 7652, "苏门答腊岛": 7653, "婆罗洲": 7654, "新几内亚": 7655, "柬埔寨": 7656, "老挝": 7657, "马来西亚": 7658, "巴基斯坦": 7659, "孟加拉国": 7660, "斯里兰卡": 7661, "尼泊尔": 7662, "不丹": 7663, "阿富汗": 7664, "伊朗": 7665, "伊拉克": 7666, "土耳其": 7667, "横跨": 7668, "叙利亚": 7669, "黎巴嫩": 7670, "约旦": 7671, "沙特阿拉伯": 7672, "阿联酋": 7673, "卡塔尔": 7674, "科威特": 7675, "巴林": 7676, "阿曼": 7677, "也门": 7678, "利比亚": 7679, "阿尔及利亚": 7680, "摩洛哥": 7681, "突尼斯": 7682, "苏丹": 7683, "埃塞俄比亚": 7684, "肯尼亚": 7685, "坦桑尼亚": 7686, "南非": 7687, "尼日利亚": 7688, "加纳": 7689, "塞内加尔": 7690, "马里": 7691, "尼日尔": 7692, "乍得": 7693, "喀麦隆": 7694, "安哥拉": 7695, "南部非洲": 7696, "莫桑比克": 7697, "东南非": 7698, "葡萄牙": 7699, "荷兰": 7700, "比利时": 7701, "卢森堡": 7702, "瑞士": 7703, "奥地利": 7704, "捷克": 7705, "斯洛伐克": 7706, "匈牙利": 7707, "罗马尼亚": 7708, "保加利亚": 7709, "塞尔维亚": 7710, "克罗地亚": 7711, "斯洛文尼亚": 7712, "波黑": 7713, "黑山": 7714, "北": 7715, "马其顿": 7716, "阿尔巴尼亚": 7717, "芬兰": 7718, "瑞典": 7719, "挪威": 7720, "丹麦": 7721, "乌克兰": 7722, "白俄罗斯": 7723, "摩尔多瓦": 7724, "格鲁吉亚": 7725, "亚美尼亚": 7726, "阿塞拜疆": 7727, "哈萨克斯坦": 7728, "乌兹别克斯坦": 7729, "土库曼斯坦": 7730, "吉尔吉斯斯坦": 7731, "塔吉克斯坦": 7732, "墨西哥": 7733, "智利": 7734, "狭长": 7735, "秘鲁": 7736, "哥伦比亚": 7737, "委内瑞拉": 7738, "厄瓜多尔": 7739, "玻利维亚": 7740, "巴拉圭": 7741, "乌拉圭": 7742, "新西兰": 7743, "斐济": 7744, "巴布亚新几内亚": 7745, "苏伊士运河": 7746, "巴拿马运河": 7747, "马六甲海峡": 7748, "直布罗陀海峡": 7749, "英吉利海峡": 7750, "霍尔木兹海峡": 7751, "波斯湾": 7752, "出口": 7753, "曼德": 7754, "白令海峡": 7755, "麦哲伦": 7756, "南端": 7757, "好望角": 7758, "合恩角": 7759, "格雷戈里": 7760, "会话": 7761, "哈比卜": 7762, "二进制码": 7763, "转换成": 7764, "吉米": 7765, "噢": 7766, "么": 7767, "有个": 7768, "效劳": 7769, "hi": 7770, "午饭": 7771, "打算": 7772, "早安": 7773, "想聊": 7774, "幸会幸": 7775, "幸会": 7776, "多多指教": 7777, "非常感谢": 7778, "亚健康": 7779, "心情愉快": 7780, "慢性病": 7781, "急性病": 7782, "传染病": 7783, "某些": 7784, "呼吸道": 7785, "胃部不适": 7786, "腰部": 7787, "颈椎病": 7788, "病变": 7789, "肩周炎": 7790, "肩关节": 7791, "偏高": 7792, "低血压": 7793, "偏低": 7794, "高血脂": 7795, "过高": 7796, "心脏病": 7797, "脑卒中": 7798, "脑血管": 7799, "增生": 7800, "肿块": 7801, "恶性肿瘤": 7802, "上呼吸道": 7803, "流感": 7804, "流行性": 7805, "传染性": 7806, "肺炎": 7807, "肺部": 7808, "哮喘": 7809, "气道": 7810, "慢性": 7811, "鼻炎": 7812, "鼻腔": 7813, "咽炎": 7814, "胃炎": 7815, "胃黏膜": 7816, "肠炎": 7817, "肠道": 7818, "肝炎": 7819, "肾炎": 7820, "皮肤病": 7821, "出现异常": 7822, "入睡": 7823, "情绪低落": 7824, "强迫症": 7825, "恐惧症": 7826, "双相": 7827, "极度": 7828, "高涨": 7829, "低落": 7830, "精神疾病": 7831, "自闭症": 7832, "多动症": 7833, "多动": 7834, "语言障碍": 7835, "迟缓": 7836, "速度慢": 7837, "老年痴呆": 7838, "帕金森": 7839, "癫痫": 7840, "脑": 7841, "功能障碍": 7842, "偏头痛": 7843, "头痛": 7844, "眩晕": 7845, "耳鸣": 7846, "响声": 7847, "视力": 7848, "近视": 7849, "远视": 7850, "近处": 7851, "散光": 7852, "青光眼": 7853, "眼压": 7854, "升高": 7855, "视神经": 7856, "白内障": 7857, "混浊": 7858, "蚊症": 7859, "眼前": 7860, "黑影": 7861, "飘动": 7862, "干眼症": 7863, "干涩": 7864, "口腔溃疡": 7865, "黏膜": 7866, "牙周炎": 7867, "牙槽骨": 7868, "智齿": 7869, "萌出": 7870, "磨牙": 7871, "异味": 7872, "痛": 7873, "扁桃体炎": 7874, "上长": 7875, "外耳道": 7876, "内耳": 7877, "坐车": 7878, "水土不服": 7879, "脱水": 7880, "水肿": 7881, "摄入": 7882, "肥胖": 7883, "超标": 7884, "消瘦": 7885, "过轻": 7886, "缺钙": 7887, "缺铁": 7888, "内分泌": 7889, "失调": 7890, "亢进": 7891, "减退": 7892, "痛风": 7893, "尿酸": 7894, "风湿": 7895, "类风湿": 7896, "红斑狼疮": 7897, "硬皮病": 7898, "综合征": 7899, "干眼": 7900, "重症": 7901, "肌无力": 7902, "多发性": 7903, "格林": 7904, "巴利": 7905, "急性": 7906, "萎缩": 7907, "骨质": 7908, "骨质增生": 7909, "骨刺": 7910, "移位": 7911, "压迫": 7912, "膝关节": 7913, "脱臼": 7914, "脱位": 7915, "拉伤": 7916, "擦伤": 7917, "利器": 7918, "割开": 7919, "火焰": 7920, "刺入": 7921, "挫伤": 7922, "钝力": 7923, "裂伤": 7924, "穿透": 7925, "枪伤": 7926, "子弹": 7927, "击中": 7928, "击伤": 7929, "心理障碍": 7930, "恢复能力": 7931, "承受": 7932, "效能": 7933, "积极态度": 7934, "消极态度": 7935, "正念": 7936, "深长": 7937, "渐进性": 7938, "自控": 7939, "反省": 7940, "审视": 7941, "完善": 7942, "终身": 7943, "心理健康": 7944, "情商": 7945, "人际交往": 7946, "智商": 7947, "逆商": 7948, "逆境": 7949, "财商": 7950, "财务管理": 7951, "德商": 7952, "批判性": 7953, "集中精力": 7954, "观察力": 7955, "直觉": 7956, "经": 7957, "灵感": 7958, "养狗要": 7959, "眼": 7960, "疲劳": 7961, "肩颈": 7962, "酸痛": 7963, "轻度": 7964, "起床": 7965, "睡觉时间": 7966, "日间": 7967, "做点": 7968, "五": 7969, "止咳": 7970, "糖浆": 7971, "胃药": 7972, "止泻药": 7973, "复温": 7974, "鼻翼": 7975, "提": 7976, "换双": 7977, "抓挠": 7978, "止痒": 7979, "眼药水": 7980, "勤洗手": 7981, "少去": 7982, "抽烟": 7983, "饮食卫生": 7984, "热身运动": 7985, "八": 7986, "两升": 7987, "七到": 7988, "八小时": 7989, "步": 7990, "一万步": 7991, "五百": 7992, "五克": 7993, "一百": 7994, "一百五十": 7995, "六克": 7996, "五十克": 7997, "奶": 7998, "毫升": 7999, "十克": 8000, "烟": 8001, "五到": 8002, "热敷": 8003, "卸妆": 8004, "五分钟": 8005, "洗脸": 8006, "三分钟": 8007, "三十秒": 8008, "洗鼻": 8009, "洗眼": 8010, "洗耳": 8011, "洗头": 8012, "各州": 8013, "推移": 8014, "黎明": 8015, "进程": 8016, "很感兴趣": 8017, "史": 8018, "两大": 8019, "与否": 8020, "电灯泡": 8021, "爱迪生": 8022, "蒸汽机": 8023, "詹姆斯": 8024, "瓦特": 8025, "造纸": 8026, "爆炸物": 8027, "龙门石窟": 8028, "云冈石窟": 8029, "大同": 8030, "麦积山": 8031, "天水": 8032, "灵渠": 8033, "郑国渠": 8034, "战国时期": 8035, "卢沟桥": 8036, "古桥": 8037, "蓬莱阁": 8038, "鹳雀楼": 8039, "雁塔": 8040, "雷峰塔": 8041, "六和塔": 8042, "嵩": 8043, "岳寺塔": 8044, "砖塔": 8045, "应县": 8046, "地坛": 8047, "日坛": 8048, "月坛": 8049, "社稷": 8050, "坛": 8051, "太庙": 8052, "皇家": 8053, "宗庙": 8054, "书院": 8055, "举人": 8056, "省级": 8057, "秀才": 8058, "县级": 8059, "榜眼": 8060, "第二名": 8061, "探花": 8062, "第三名": 8063, "翰林院": 8064, "内阁": 8065, "六部": 8066, "三省": 8067, "太师": 8068, "太傅": 8069, "太保": 8070, "侍郎": 8071, "副": 8072, "知州": 8073, "总督": 8074, "巡抚": 8075, "将军": 8076, "都尉": 8077, "校尉": 8078, "司马": 8079, "太守": 8080, "刺史": 8081, "县令": 8082, "保甲": 8083, "租庸调": 8084, "两税法": 8085, "鞭法": 8086, "摊丁入": 8087, "亩": 8088, "井田制": 8089, "均田制": 8090, "北魏": 8091, "屯田制": 8092, "府兵制": 8093, "隋唐": 8094, "募兵制": 8095, "卫所": 8096, "八旗": 8097, "绿营": 8098, "湘军": 8099, "淮军": 8100, "北洋军": 8101, "黄埔军校": 8102, "军校": 8103, "长征": 8104, "红军": 8105, "战略转移": 8106, "抗日战争": 8107, "侵略": 8108, "解放战争": 8109, "国共": 8110, "抗美援朝": 8111, "越": 8112, "反击战": 8113, "南北朝": 8114, "五代十国": 8115, "启": 8116, "桀": 8117, "纣": 8118, "孙武": 8119, "孟子": 8120, "庄子": 8121, "荀子": 8122, "班超": 8123, "投笔从戎": 8124, "陆逊": 8125, "谢安": 8126, "东晋": 8127, "李商隐": 8128, "杜牧": 8129, "郑成功": 8130, "收复": 8131, "大总统": 8132, "陵墓": 8133, "马王堆": 8134, "汉墓": 8135, "西汉": 8136, "墓葬": 8137, "三星堆": 8138, "古蜀": 8139, "良渚": 8140, "新石器": 8141, "殷墟": 8142, "都城": 8143, "楼兰": 8144, "交河": 8145, "高昌": 8146, "长安": 8147, "开封": 8148, "五千年": 8149, "炼丹": 8150, "六国": 8151, "度量衡": 8152, "北击": 8153, "匈奴": 8154, "开通": 8155, "唐太宗": 8156, "开创": 8157, "贞观之治": 8158, "宋太祖": 8159, "成吉思汗": 8160, "帝国": 8161, "明太祖": 8162, "康熙": 8163, "平三藩": 8164, "乾隆": 8165, "十全": 8166, "武功": 8167, "推翻": 8168, "民国": 8169, "孙子": 8170, "屈原": 8171, "楚国": 8172, "班固": 8173, "汉书": 8174, "李时珍": 8175, "本草纲目": 8176, "扁鹊": 8177, "名医": 8178, "茶马": 8179, "汤是": 8180, "山羊": 8181, "巴": 8182, "AAAAA": 8183, "D": 8184, "忍者": 8185, "奶牛": 8186, "禁止": 8187, "罐装": 8188, "一视同仁": 8189, "同样": 8190, "看待": 8191, "厚薄": 8192, "一丝不苟": 8193, "认真细致": 8194, "一往无前": 8195, "一针见血": 8196, "切中要害": 8197, "一马当先": 8198, "前面": 8199, "一马平川": 8200, "平坦": 8201, "一气呵成": 8202, "一口气": 8203, "一成不变": 8204, "一尘不染": 8205, "一见如故": 8206, "初次见面": 8207, "老朋友": 8208, "一见钟情": 8209, "一见倾心": 8210, "好感": 8211, "一往情深": 8212, "很深": 8213, "一心一意": 8214, "专心致志": 8215, "一模一样": 8216, "一字千金": 8217, "一贫如洗": 8218, "一无所有": 8219, "一筹莫展": 8220, "想不出": 8221, "一蹶不振": 8222, "振作": 8223, "一落千丈": 8224, "急剧下降": 8225, "一日千里": 8226, "一触即发": 8227, "形势": 8228, "一触即溃": 8229, "一碰": 8230, "垮": 8231, "一呼百应": 8232, "号召": 8233, "一掷": 8234, "巨万": 8235, "两全其美": 8236, "两败俱伤": 8237, "两面三刀": 8238, "背后": 8239, "两小无猜": 8240, "男女": 8241, "小时候": 8242, "天真无邪": 8243, "两肋插刀": 8244, "不惜牺牲": 8245, "三顾茅庐": 8246, "真心诚意": 8247, "邀请": 8248, "三思而行": 8249, "三生有幸": 8250, "三缄其口": 8251, "四面八方": 8252, "各个": 8253, "四海为家": 8254, "四通八达": 8255, "四平八稳": 8256, "平稳": 8257, "五光十色": 8258, "色彩鲜艳": 8259, "五花八门": 8260, "繁多": 8261, "五彩缤纷": 8262, "五湖四海": 8263, "全国": 8264, "五体投地": 8265, "六神无主": 8266, "心慌意乱": 8267, "六亲不认": 8268, "不讲情面": 8269, "七上八下": 8270, "心神不定": 8271, "七嘴八舌": 8272, "你一言我一语": 8273, "七零八落": 8274, "零散": 8275, "八面玲珑": 8276, "处事": 8277, "圆滑": 8278, "八仙过海": 8279, "各显神通": 8280, "九牛一毛": 8281, "渺小": 8282, "九死一生": 8283, "十拿九稳": 8284, "百发百中": 8285, "命中": 8286, "百折不挠": 8287, "意志坚强": 8288, "百战百胜": 8289, "百里挑一": 8290, "千钧一发": 8291, "危急": 8292, "千篇一律": 8293, "毫无": 8294, "千变万化": 8295, "千军万马": 8296, "千山万水": 8297, "路途遥远": 8298, "千辛万苦": 8299, "万无一失": 8300, "万事大吉": 8301, "万马奔腾": 8302, "万众一心": 8303, "团结一致": 8304, "万古长青": 8305, "万古流芳": 8306, "流传": 8307, "万世师表": 8308, "榜样": 8309, "万寿无疆": 8310, "万不得已": 8311, "万劫不复": 8312, "万籁俱寂": 8313, "万马齐喑": 8314, "不敢": 8315, "万目睽睽": 8316, "注视": 8317, "万死不辞": 8318, "不怕牺牲": 8319, "心急如焚": 8320, "心惊胆战": 8321, "心惊肉跳": 8322, "心有余悸": 8323, "事后": 8324, "心心相印": 8325, "相通": 8326, "心领神会": 8327, "不用说": 8328, "心照不宣": 8329, "心悦诚服": 8330, "真心": 8331, "心服口服": 8332, "心安理得": 8333, "问心无愧": 8334, "心不在焉": 8335, "思想": 8336, "心驰神往": 8337, "心血来潮": 8338, "胸无大志": 8339, "胸无点墨": 8340, "没有学问": 8341, "志同道合": 8342, "志在四方": 8343, "志在必得": 8344, "志大才疏": 8345, "雄心壮志": 8346, "雄心勃勃": 8347, "雄心": 8348, "壮志凌云": 8349, "豪情壮志": 8350, "豪迈": 8351, "意气风发": 8352, "精神振奋": 8353, "意气用事": 8354, "办事": 8355, "意在言外": 8356, "之外": 8357, "意味深长": 8358, "深远": 8359, "意想不到": 8360, "出乎意料": 8361, "意料之中": 8362, "之内": 8363, "出其不意": 8364, "出乎": 8365, "意料": 8366, "出人意料": 8367, "不以为意": 8368, "一万两千": 8369, "四十二": 8370, "一百三十": 8371, "三千": 8372, "四百": 8373, "七十四": 8374, "一亿五千万": 8375, "光年": 8376, "光在": 8377, "走过": 8378, "类星体": 8379, "极其": 8380, "所在": 8381, "总和": 8382, "九百": 8383, "亿光年": 8384, "多少岁": 8385, "起源": 8386, "电磁力": 8387, "强力": 8388, "弱力": 8389, "放射性": 8390, "衰变": 8391, "正电": 8392, "负电": 8393, "反物质": 8394, "第四": 8395, "态": 8396, "费米子": 8397, "超导": 8398, "超流": 8399, "粘度": 8400, "影像": 8401, "十亿分": 8402, "微米": 8403, "百万分之一": 8404, "毫米": 8405, "千分之一": 8406, "厘米": 8407, "百分之一": 8408, "光速": 8409, "三十万": 8410, "音速": 8411, "四十米": 8412, "传播方式": 8413, "电场": 8414, "人眼": 8415, "紫光": 8416, "共价键": 8417, "离子键": 8418, "金属键": 8419, "氢原子": 8420, "弱键": 8421, "氧化": 8422, "分子量": 8423, "核酸": 8424, "遗传信息": 8425, "脱氧核糖核酸": 8426, "RNA": 8427, "核糖核酸": 8428, "细胞质": 8429, "细胞核": 8430, "控制中心": 8431, "线粒体": 8432, "工厂": 8433, "叶绿体": 8434, "核糖体": 8435, "内质网": 8436, "加工": 8437, "高尔基体": 8438, "分选": 8439, "溶酶体": 8440, "液泡": 8441, "组织者": 8442, "有丝分裂": 8443, "增殖": 8444, "减数分裂": 8445, "生殖细胞": 8446, "基因突变": 8447, "重新组合": 8448, "自然选择": 8449, "适者生存": 8450, "相互": 8451, "统一体": 8452, "多条": 8453, "交织": 8454, "位": 8455, "多样性": 8456, "濒危": 8457, "面临": 8458, "化石": 8459, "遗骸": 8460, "太古宙": 8461, "元古宙": 8462, "寒武纪": 8463, "古生代": 8464, "中生代": 8465, "新生代": 8466, "第四纪": 8467, "地质": 8468, "纪": 8469, "冰河时期": 8470, "间冰期": 8471, "冰期": 8472, "期": 8473, "构造": 8474, "地下": 8475, "巨浪": 8476, "旋风": 8477, "暴风雪": 8478, "伴随": 8479, "水量": 8480, "淹没": 8481, "泥石流": 8482, "泥沙": 8483, "滑坡": 8484, "滑动": 8485, "地面沉降": 8486, "下沉": 8487, "沙漠化": 8488, "水土流失": 8489, "冲走": 8490, "盐碱化": 8491, "酸雨": 8492, "酸性": 8493, "温室效应": 8494, "大气层": 8495, "保温": 8496, "变暖": 8497, "平均温度": 8498, "臭氧层": 8499, "空气污染": 8500, "水污染": 8501, "水体": 8502, "土壤污染": 8503, "噪声污染": 8504, "污染": 8505, "电磁辐射": 8506, "再生能源": 8507, "核分裂": 8508, "核聚变": 8509, "轻核": 8510, "生物质": 8511, "氢能": 8512, "氢气": 8513, "锂电池": 8514, "用锂": 8515, "电极": 8516, "电容器": 8517, "高功率": 8518, "水力": 8519, "核反应堆": 8520, "加速器": 8521, "对撞机": 8522, "对撞": 8523, "显微镜": 8524, "光谱仪": 8525, "质谱仪": 8526, "色谱仪": 8527, "离心机": 8528, "离心力": 8529, "核磁共振": 8530, "射频": 8531, "断层": 8532, "内窥镜": 8533, "腔道": 8534, "血压计": 8535, "体温计": 8536, "测量体温": 8537, "血糖仪": 8538, "血氧仪": 8539, "血氧": 8540, "呼吸机": 8541, "心脏起搏器": 8542, "心律": 8543, "人工关节": 8544, "假肢": 8545, "拐杖": 8546, "助听器": 8547, "矫正视力": 8548, "隐形眼镜": 8549, "太阳镜": 8550, "强光": 8551, "护目镜": 8552, "安全帽": 8553, "救生衣": 8554, "浮在": 8555, "灭火器": 8556, "灭火": 8557, "急救包": 8558, "绷带": 8559, "布条": 8560, "消毒液": 8561, "乙醇": 8562, "伏": 8563, "制剂": 8564, "创可贴": 8565, "胶布": 8566, "感冒药": 8567, "消炎药": 8568, "钙片": 8569, "铁剂": 8570, "益生菌": 8571, "中药": 8572, "西药": 8573, "现代": 8574, "处方药": 8575, "非处方药": 8576, "生物制品": 8577, "血清": 8578, "抗病毒": 8579, "抗真菌": 8580, "生理功能": 8581, "抗原": 8582, "防御": 8583, "白细胞": 8584, "血小板": 8585, "血浆": 8586, "骨髓": 8587, "血细胞": 8588, "淋巴": 8589, "脾脏": 8590, "胸腺": 8591, "T": 8592, "阑尾": 8593, "从极": 8594, "高密度": 8595, "而来": 8596, "白洞": 8597, "吐": 8598, "吞": 8599, "透镜": 8600, "红移": 8601, "变长": 8602, "蓝移": 8603, "变短": 8604, "多普勒": 8605, "波源": 8606, "余辉": 8607, "年龄": 8608, "并存": 8609, "多重": 8610, "人择": 8611, "恰好": 8612, "费米": 8613, "悖论": 8614, "德雷克": 8615, "估算": 8616, "SETI": 8617, "搜寻": 8618, "METI": 8619, "旅行者": 8620, "先驱者": 8621, "深空": 8622, "新视野": 8623, "探测": 8624, "着陆器": 8625, "朱诺": 8626, "卡西尼": 8627, "韦伯": 8628, "新一代": 8629, "钱德拉": 8630, "开普勒": 8631, "TESS": 8632, "凌日": 8633, "巡天": 8634, "太阳系外": 8635, "宜居": 8636, "液态水": 8637, "矮星": 8638, "巨星": 8639, "大而热": 8640, "磁星": 8641, "双星": 8642, "两颗": 8643, "绕转": 8644, "聚星": 8645, "多颗": 8646, "球状": 8647, "疏散": 8648, "反射光": 8649, "暗星云": 8650, "遗迹": 8651, "残骸": 8652, "冷而密": 8653, "原": 8654, "主序星": 8655, "超巨星": 8656, "沃尔夫": 8657, "拉叶星": 8658, "造父": 8659, "天琴座": 8660, "RR": 8661, "型": 8662, "宇宙线": 8663, "耀斑": 8664, "日冕": 8665, "抛射": 8666, "太阳黑子": 8667, "暗区": 8668, "太阳活动": 8669, "地磁场": 8670, "磁层": 8671, "地球磁场": 8672, "范艾伦": 8673, "陨石": 8674, "落到": 8675, "奥尔特": 8676, "谷神星": 8677, "带中": 8678, "阋": 8679, "妊神星": 8680, "火卫一": 8681, "火卫二": 8682, "伽利略": 8683, "四颗": 8684, "空洞": 8685, "墙": 8686, "晕": 8687, "团块": 8688, "丝": 8689, "WIMP": 8690, "轴子": 8691, "每种": 8692, "有超": 8693, "伙伴": 8694, "三种": 8695, "一维": 8696, "M": 8697, "额外": 8698, "编码": 8699, "圈": 8700, "扭量": 8701, "基因工程": 8702, "细胞工程": 8703, "酶工程": 8704, "催化反应": 8705, "CRISPR": 8706, "基因芯片": 8707, "转基因": 8708, "外源": 8709, "杂交育种": 8710, "诱变剂": 8711, "多倍体": 8712, "单倍体": 8713, "组织培养": 8714, "培养基": 8715, "愈伤": 8716, "脱": 8717, "分化": 8718, "团": 8719, "原生质": 8720, "去除": 8721, "细胞融合": 8722, "杂交瘤": 8723, "免疫治疗": 8724, "靶向": 8725, "靶点": 8726, "定制": 8727, "产前诊断": 8728, "新生儿": 8729, "遗传病": 8730, "优生优育": 8731, "生殖": 8732, "试管婴儿": 8733, "体外受精": 8734, "人工授精": 8735, "冻卵": 8736, "卵子": 8737, "代孕": 8738, "领养": 8739, "亲子鉴定": 8740, "亲子关系": 8741, "身份": 8742, "法医鉴定": 8743, "尸检": 8744, "尸体解剖": 8745, "毒理学": 8746, "病理学": 8747, "死因": 8748, "人类学": 8749, "昆虫学": 8750, "齿学": 8751, "犯罪心理": 8752, "推测": 8753, "犯罪者": 8754, "测谎": 8755, "脑电波": 8756, "眼动": 8757, "眼球": 8758, "笔迹": 8759, "笔迹特征": 8760, "交通事故": 8761, "事故": 8762, "环境监测": 8763, "环境质量": 8764, "电磁场": 8765, "病毒检测": 8766, "上差": 8767, "交叉": 8768, "轮流": 8769, "正则": 8770, "复杂度": 8771, "召回": 8772, "变换": 8773, "家务": 8774, "从上到下": 8775, "养绿植": 8776, "扔掉": 8777, "比价": 8778, "性价比": 8779, "小票": 8780, "内退": 8781, "热线": 8782, "维权": 8783, "营业执照": 8784, "礼仪": 8785, "搞好关系": 8786, "下家": 8787, "交接": 8788, "组建": 8789, "卫生": 8790, "腰椎": 8791, "染烫": 8792, "长时间": 8793, "嗓子": 8794, "温水": 8795, "辛辣": 8796, "生冷": 8797, "熬夜": 8798, "控制情绪": 8799, "肺": 8800, "吸烟": 8801, "新鲜空气": 8802, "肾": 8803, "憋": 8804, "长高": 8805, "塑形": 8806, "腹肌": 8807, "卷腹": 8808, "平板": 8809, "胸肌": 8810, "俯卧撑": 8811, "飞鸟": 8812, "引体向上": 8813, "练腿": 8814, "弓步": 8815, "弯举": 8816, "三头": 8817, "下压": 8818, "姿势": 8819, "再学": 8820, "戴好": 8821, "头盔": 8822, "手脚": 8823, "慢跑": 8824, "30": 8825, "秒": 8826, "力度": 8827, "用温": 8828, "分钟": 8829, "点燃": 8830, "艾条": 8831, "对准": 8832, "专业人士": 8833, "刮": 8834, "吃药": 8835, "遵": 8836, "医嘱": 8837, "按量": 8838, "空腹": 8839, "按程序": 8840, "接种": 8841, "120": 8842, "吹气": 8843, "胸部": 8844, "救": 8845, "上岸": 8846, "触电": 8847, "切断": 8848, "窒息": 8849, "海姆": 8850, "立克": 8851, "急救法": 8852, "拔出": 8853, "服用": 8854, "晕船药": 8855, "远方": 8856, "时差": 8857, "数到": 8858, "找人": 8859, "自卑": 8860, "本职": 8861, "和睦相处": 8862, "恋人": 8863, "老人": 8864, "先行": 8865, "提炼": 8866, "验收": 8867, "毛衣": 8868, "丝绸": 8869, "牛仔裤": 8870, "翻面": 8871, "油渍": 8872, "血渍": 8873, "墨": 8874, "牙膏": 8875, "咖啡渍": 8876, "茶渍": 8877, "红酒": 8878, "吸干": 8879, "果汁": 8880, "草渍": 8881, "柠檬汁": 8882, "油漆": 8883, "汽油": 8884, "松节油": 8885, "胶": 8886, "丙酮": 8887, "口香糖": 8888, "冰块": 8889, "冻硬": 8890, "去掉": 8891, "用除": 8892, "球器": 8893, "刮胡刀": 8894, "面料": 8895, "换季": 8896, "被子": 8897, "鞋盒": 8898, "塞纸防": 8899, "防尘": 8900, "首饰": 8901, "首饰盒": 8902, "化妆品": 8903, "化妆台": 8904, "药品": 8905, "药箱": 8906, "杂物": 8907, "洋葱": 8908, "流泪": 8909, "冷藏": 8910, "再切": 8911, "戴泳镜": 8912, "锯齿": 8913, "刀": 8914, "烂": 8915, "切肉": 8916, "洗锅": 8917, "趁热": 8918, "砧板": 8919, "油烟机": 8920, "油污": 8921, "喷剂": 8922, "冰箱": 8923, "断电": 8924, "微波炉": 8925, "放碗": 8926, "滤网": 8927, "洗衣机": 8928, "镜子": 8929, "不锈钢": 8930, "木家具": 8931, "湿布": 8932, "太湿": 8933, "皮沙发": 8934, "皮革": 8935, "水垢": 8936, "柠檬酸": 8937, "霉斑": 8938, "除异味": 8939, "烟味": 8940, "净化器": 8941, "硼酸": 8942, "蚊子": 8943, "蚊香": 8944, "苍蝇": 8945, "粘蝇": 8946, "纸": 8947, "粘鼠板": 8948, "捕鼠": 8949, "养花": 8950, "干见": 8951, "积水": 8952, "施肥": 8953, "薄肥": 8954, "勤施": 8955, "枯枝": 8956, "病枝": 8957, "扦插": 8958, "健壮": 8959, "播种": 8960, "覆土": 8961, "嫁接": 8962, "砧木": 8963, "接穗": 8964, "分株": 8965, "植株": 8966, "栽种": 8967, "压条": 8968, "压": 8969, "入土": 8970, "剪断": 8971, "养鸟": 8972, "养蛇": 8973, "节约粮食": 8974, "盛": 8975, "保护环境": 8976, "塑料袋": 8977, "低碳": 8978, "节约资源": 8979, "秘密组织": 8980, "阴谋": 8981, "控制权": 8982, "比尔": 8983, "巴金": 8984, "领主": 8985, "坎特伯雷": 8986, "闻名": 8987, "码头": 8988, "桥墩": 8989, "山洞": 8990, "寓言": 8991, "AVE": 8992, "数千卷": 8993, "荷马史诗": 8994, "雷": 8995, "布拉德": 8996, "伯里": 8997, "雷是": 8998, "很酷": 8999, "们": 9000, "汉斯": 9001, "莫拉维": 9002, "威廉": 9003, "吉布森": 9004, "大爱赛": 9005, "比新": 9006, "霍尔": 9007, "捕手": 9008, "写道": 9009, "托尔斯泰": 9010, "电羊": 9011, "VALIS": 9012, "城堡": 9013, "弗兰克": 9014, "赫伯特": 9015, "沙丘": 9016, "极好": 9017, "朗": 9018, "费罗": 9019, "23": 9020, "启示录": 9021, "AC": 9022, "克拉克": 9023, "儒勒": 9024, "凡尔纳": 9025, "阿西莫夫": 9026, "三部曲": 9027, "斯坦尼斯": 9028, "科幻": 9029, "白痴": 9030, "陀思妥": 9031, "耶夫斯基": 9032, "哈比人": 9033, "JRR": 9034, "玛丽": 9035, "雪莱": 9036, "床前": 9037, "明月光": 9038, "举头": 9039, "望明月": 9040, "故乡": 9041, "白日": 9042, "依山": 9043, "入海流": 9044, "欲穷千里目": 9045, "更上一层楼": 9046, "春眠": 9047, "不觉": 9048, "晓": 9049, "处处": 9050, "闻啼鸟": 9051, "夜来": 9052, "风雨": 9053, "花落": 9054, "知多少": 9055, "南国": 9056, "春来": 9057, "几枝": 9058, "愿君": 9059, "采撷": 9060, "此物": 9061, "千": 9062, "山鸟飞": 9063, "绝": 9064, "万径": 9065, "人踪": 9066, "灭": 9067, "孤舟": 9068, "蓑笠": 9069, "翁": 9070, "独钓": 9071, "寒江雪": 9072, "锄禾日当午": 9073, "汗滴禾下土": 9074, "谁知盘中餐": 9075, "粒粒皆辛苦": 9076, "离离": 9077, "原上": 9078, "一岁一枯": 9079, "荣": 9080, "野火烧不尽": 9081, "春风吹又生": 9082, "鹅鹅鹅": 9083, "曲项": 9084, "向天歌": 9085, "白毛": 9086, "红掌": 9087, "清波": 9088, "松下": 9089, "童子": 9090, "言师": 9091, "采药": 9092, "此": 9093, "山中": 9094, "云深": 9095, "不见": 9096, "闻人": 9097, "语响": 9098, "返景入": 9099, "复照": 9100, "青苔": 9101, "独坐": 9102, "幽篁": 9103, "复": 9104, "长啸": 9105, "人不知": 9106, "相照": 9107, "人闲": 9108, "夜静": 9109, "春山空": 9110, "惊": 9111, "山鸟": 9112, "时鸣春涧": 9113, "国破": 9114, "山河": 9115, "城春": 9116, "草木": 9117, "感时": 9118, "溅": 9119, "泪": 9120, "恨别": 9121, "惊心": 9122, "好雨知": 9123, "当春": 9124, "乃": 9125, "随风潜入夜": 9126, "润物细无声": 9127, "鸣翠柳": 9128, "一行": 9129, "白鹭": 9130, "青天": 9131, "窗含": 9132, "西岭": 9133, "千秋雪": 9134, "门泊": 9135, "东吴": 9136, "船": 9137, "朝辞": 9138, "白帝": 9139, "彩云": 9140, "江陵": 9141, "两岸": 9142, "猿声": 9143, "啼": 9144, "不住": 9145, "已过": 9146, "万重山": 9147, "香炉": 9148, "紫烟": 9149, "遥看": 9150, "前川": 9151, "飞流直下三千尺": 9152, "银河": 9153, "落九天": 9154, "故人": 9155, "西辞": 9156, "烟花": 9157, "孤帆": 9158, "远影": 9159, "碧空": 9160, "唯见": 9161, "天际": 9162, "乘舟": 9163, "欲行": 9164, "忽闻": 9165, "岸上": 9166, "踏": 9167, "秦时": 9168, "汉时关": 9169, "万里长征": 9170, "人未": 9171, "龙城": 9172, "不教": 9173, "胡马度": 9174, "阴山": 9175, "美酒": 9176, "夜光杯": 9177, "饮": 9178, "马上": 9179, "醉卧": 9180, "沙场": 9181, "君莫笑": 9182, "古来": 9183, "征战": 9184, "几人": 9185, "远上": 9186, "孤城": 9187, "万仞": 9188, "羌笛": 9189, "何须": 9190, "怨": 9191, "杨柳": 9192, "不度": 9193, "玉门关": 9194, "月落乌啼": 9195, "满天": 9196, "江枫": 9197, "渔火": 9198, "对愁": 9199, "眠": 9200, "姑苏": 9201, "城外": 9202, "寒山寺": 9203, "夜半钟声": 9204, "客船": 9205, "纷纷": 9206, "路上行人": 9207, "断魂": 9208, "借问": 9209, "酒家": 9210, "牧童": 9211, "遥指": 9212, "杏花村": 9213, "独在": 9214, "异乡": 9215, "异客": 9216, "每逢佳节倍思亲": 9217, "遥知": 9218, "遍": 9219, "茱萸": 9220, "少一人": 9221, "少小离家": 9222, "老大": 9223, "乡音": 9224, "无改": 9225, "鬓毛": 9226, "衰": 9227, "儿童": 9228, "问客": 9229, "慈母": 9230, "手中": 9231, "游子": 9232, "身上": 9233, "衣": 9234, "临行": 9235, "密密缝": 9236, "意恐": 9237, "迟迟": 9238, "归": 9239, "谁言寸草": 9240, "报得": 9241, "春晖": 9242, "大漠": 9243, "孤烟直": 9244, "长河": 9245, "日圆": 9246, "渡头": 9247, "余": 9248, "落日": 9249, "墟": 9250, "孤烟": 9251, "竹": 9252, "喧归": 9253, "浣": 9254, "莲动": 9255, "渔舟": 9256, "新雨后": 9257, "晚来": 9258, "人有": 9259, "悲欢离合": 9260, "阴晴圆": 9261, "此事": 9262, "古难全": 9263, "但愿人长久": 9264, "婵娟": 9265, "大江东去": 9266, "浪淘尽": 9267, "千古": 9268, "风流人物": 9269, "故垒": 9270, "西边": 9271, "国周郎": 9272, "赤壁": 9273, "人生如梦": 9274, "一尊": 9275, "酹": 9276, "江月": 9277, "生死": 9278, "茫茫": 9279, "思量": 9280, "难忘": 9281, "孤坟": 9282, "无处": 9283, "凄凉": 9284, "纵使": 9285, "相逢": 9286, "应不识": 9287, "满面": 9288, "鬓": 9289, "如霜": 9290, "几时": 9291, "把酒": 9292, "问青天": 9293, "天上": 9294, "宫阙": 9295, "今夕": 9296, "何年": 9297, "乘风": 9298, "归去": 9299, "恐": 9300, "琼楼玉宇": 9301, "高处不胜": 9302, "寒": 9303, "起舞": 9304, "影": 9305, "何似": 9306, "寻寻觅觅": 9307, "冷冷清清": 9308, "凄凄惨惨": 9309, "戚戚": 9310, "乍暖还寒": 9311, "将息": 9312, "两盏": 9313, "淡酒": 9314, "却是": 9315, "旧时": 9316, "如今": 9317, "堪": 9318, "守着": 9319, "窗儿": 9320, "独自": 9321, "怎生": 9322, "兼": 9323, "怎": 9324, "愁字": 9325, "昨夜": 9326, "雨疏": 9327, "风骤": 9328, "浓睡": 9329, "不消": 9330, "残酒": 9331, "试问": 9332, "卷帘": 9333, "海棠": 9334, "依旧": 9335, "应是": 9336, "绿肥红瘦": 9337, "花自": 9338, "飘零水": 9339, "自流": 9340, "两处": 9341, "闲愁": 9342, "此情": 9343, "无计": 9344, "眉头": 9345, "心头": 9346, "红藕香": 9347, "残玉": 9348, "簟": 9349, "轻解罗裳": 9350, "独上": 9351, "兰舟": 9352, "云中": 9353, "寄锦书来": 9354, "雁字": 9355, "回时": 9356, "西楼": 9357, "常记溪亭": 9358, "日暮": 9359, "归路": 9360, "兴尽晚": 9361, "回舟": 9362, "误入": 9363, "藕花": 9364, "深处": 9365, "惊起": 9366, "一滩": 9367, "鸥": 9368, "鹭": 9369, "人杰": 9370, "亦": 9371, "鬼雄": 9372, "至今": 9373, "项羽": 9374, "不肯": 9375, "江东": 9376, "风住": 9377, "香花": 9378, "已尽": 9379, "晚倦": 9380, "梳头": 9381, "物是人非": 9382, "事事": 9383, "语泪": 9384, "先流": 9385, "春": 9386, "尚好": 9387, "拟泛": 9388, "只恐": 9389, "舴艋": 9390, "舟": 9391, "算术": 9392, "计算方法": 9393, "运算": 9394, "三角学": 9395, "微积分": 9396, "概率论": 9397, "统计学": 9398, "数论": 9399, "整数": 9400, "拓扑学": 9401, "群论": 9402, "集合论": 9403, "逻辑学": 9404, "离散数学": 9405, "线性代数": 9406, "复变": 9407, "复数": 9408, "实变": 9409, "实数": 9410, "泛": 9411, "函": 9412, "偏": 9413, "含偏": 9414, "常": 9415, "含常": 9416, "近似计算": 9417, "运筹学": 9418, "博弈论": 9419, "图论": 9420, "分形": 9421, "几何图形": 9422, "混沌": 9423, "确定性": 9424, "无穷大": 9425, "无穷小": 9426, "趋": 9427, "近于零": 9428, "极限": 9429, "体积": 9430, "级数": 9431, "矩形": 9432, "阵列": 9433, "标量": 9434, "行列式": 9435, "方阵": 9436, "特征值": 9437, "特征向量": 9438, "正交": 9439, "垂直": 9440, "相交": 9441, "镜像": 9442, "转动": 9443, "平移": 9444, "整体": 9445, "缩放": 9446, "放大": 9447, "投影": 9448, "平面": 9449, "直角坐标": 9450, "垂直轴": 9451, "隐": 9452, "显": 9453, "奇函数": 9454, "偶函数": 9455, "y": 9456, "轴对称": 9457, "周期函数": 9458, "单调": 9459, "连续函数": 9460, "间断": 9461, "可微": 9462, "求导": 9463, "可积": 9464, "发散": 9465, "绝对值": 9466, "最大值": 9467, "最小值": 9468, "平均值": 9469, "除以": 9470, "个数": 9471, "中位数": 9472, "众数": 9473, "标准差": 9474, "平方根": 9475, "正态分布": 9476, "钟形": 9477, "曲线": 9478, "均匀分布": 9479, "概率分布": 9480, "泊松": 9481, "稀有": 9482, "二项分布": 9483, "成功失败": 9484, "指数分布": 9485, "等待时间": 9486, "厚度": 9487, "是体": 9488, "长宽": 9489, "两条": 9490, "射线": 9491, "夹角": 9492, "锐角": 9493, "小于": 9494, "钝角": 9495, "大于": 9496, "平角": 9497, "一百八十度": 9498, "周角": 9499, "三百六十度": 9500, "三条": 9501, "三边": 9502, "等腰三角": 9503, "两边": 9504, "直角三角形": 9505, "四边形": 9506, "四条": 9507, "正方形": 9508, "平行四边形": 9509, "梯形": 9510, "圆形": 9511, "圆心": 9512, "椭圆": 9513, "扇形": 9514, "弓形": 9515, "弧": 9516, "围成": 9517, "圆环": 9518, "同心圆": 9519, "球心": 9520, "圆柱": 9521, "圆锥": 9522, "棱柱": 9523, "棱台": 9524, "截断": 9525, "各面": 9526, "全等": 9527, "五种": 9528, "四面体": 9529, "六面体": 9530, "八面体": 9531, "八个": 9532, "十二面": 9533, "十二个": 9534, "十面体": 9535, "二十个": 9536, "和力": 9537, "运动学": 9538, "动力学": 9539, "静力学": 9540, "流体力学": 9541, "声学": 9542, "核物理": 9543, "凝聚态": 9544, "电学": 9545, "磁学": 9546, "磁": 9547, "原子物理": 9548, "固体物理": 9549, "半导体": 9550, "导电性": 9551, "超导体": 9552, "磁体": 9553, "磁性": 9554, "非晶体": 9555, "合金": 9556, "复合材料": 9557, "纳米材料": 9558, "分析化学": 9559, "分析方法": 9560, "物理化学": 9561, "生物化学": 9562, "电化学": 9563, "光化学": 9564, "核反应": 9565, "量子化学": 9566, "地球化学": 9567, "不能分解": 9568, "均匀": 9569, "溶质": 9570, "饱和": 9571, "析出": 9572, "沸点": 9573, "冷凝": 9574, "萃取": 9575, "色谱": 9576, "电解": 9577, "电铸": 9578, "金属制品": 9579, "水力发电": 9580, "火力发电": 9581, "热能": 9582, "潮汐发电": 9583, "垃圾焚烧": 9584, "余热": 9585, "废热": 9586, "光伏": 9587, "光热": 9588, "变热": 9589, "薪水": 9590, "加息": 9591, "一元": 9592, "钱财": 9593, "用作": 9594, "媒介": 9595, "储藏": 9596, "记帐": 9597, "专门": 9598, "物资": 9599, "充当": 9600, "等价物": 9601, "股票交易": 9602, "财政": 9603, "走红": 9604, "付钱": 9605, "并不需要": 9606, "奢侈品": 9607, "块钱": 9608, "一块钱": 9609, "金后": 9610, "稳健": 9611, "承受能力": 9612, "追涨杀跌": 9613, "扣款": 9614, "信用卡": 9615, "全额": 9616, "分期": 9617, "三类": 9618, "恭维": 9619, "尤达": 9620, "语法结构": 9621, "足以": 9622, "银翼": 9623, "xfind": 9624, "2002": 9625, "漫画书": 9626, "拍成电影": 9627, "具名": 9628, "红宝石": 9629, "快感": 9630, "科幻电影": 9631, "solaris": 9632, "Solaris": 9633, "SUN": 9634, "HAL9000": 9635, "立场": 9636, "启发式": 9637, "哈儿": 9638, "男朋友": 9639, "已死": 9640, "危及": 9641, "纽约": 9642, "怪物": 9643, "蜘蛛人": 9644, "彼得": 9645, "帕克": 9646, "阙": 9647, "veut": 9648, "可怕": 9649, "logique": 9650, "heuristique": 9651, "algorithmique": 9652, "节拍": 9653, "大调": 9654, "小调": 9655, "暗淡": 9656, "音程": 9657, "音高": 9658, "高低": 9659, "音长": 9660, "长短": 9661, "合奏": 9662, "协奏": 9663, "交响": 9664, "室内乐": 9665, "弦乐": 9666, "管乐": 9667, "用管": 9668, "打击乐": 9669, "敲击": 9670, "声乐": 9671, "人声": 9672, "器乐": 9673, "独唱": 9674, "二重唱": 9675, "三重唱": 9676, "四重唱": 9677, "清唱": 9678, "伴唱": 9679, "主唱": 9680, "摇滚": 9681, "古典": 9682, "严肃": 9683, "爵士": 9684, "蓝调": 9685, "忧郁": 9686, "灵魂": 9687, "放克": 9688, "迪斯科": 9689, "嘻": 9690, "哈": 9691, "街头": 9692, "雷鬼": 9693, "牙买加": 9694, "拉丁美洲": 9695, "桑巴": 9696, "探戈": 9697, "伦巴": 9698, "恰恰": 9699, "萨尔": 9700, "萨": 9701, "波萨": 9702, "诺瓦": 9703, "弗拉门": 9704, "戈": 9705, "爱尔兰": 9706, "民间": 9707, "福音": 9708, "新世纪": 9709, "原声": 9710, "翻唱": 9711, "演绎": 9712, "原创": 9713, "作曲": 9714, "编曲": 9715, "配器": 9716, "填词": 9717, "歌词": 9718, "录制": 9719, "混音": 9720, "音轨": 9721, "母带": 9722, "最终": 9723, "录音": 9724, "面前": 9725, "巡演": 9726, "音乐节": 9727, "演唱会": 9728, "音乐剧": 9729, "芭蕾": 9730, "交响诗": 9731, "管弦乐": 9732, "序曲": 9733, "开场": 9734, "间奏曲": 9735, "幕间": 9736, "夜曲": 9737, "抒情曲": 9738, "练习曲": 9739, "奏鸣曲": 9740, "乐章": 9741, "器乐曲": 9742, "协奏曲": 9743, "交响曲": 9744, "组曲": 9745, "多首": 9746, "变奏曲": 9747, "回旋曲": 9748, "赋格": 9749, "声部": 9750, "前奏曲": 9751, "引子": 9752, "圆舞曲": 9753, "进行曲": 9754, "行进": 9755, "摇篮曲": 9756, "哄": 9757, "小夜曲": 9758, "情歌": 9759, "狂想曲": 9760, "幻想曲": 9761, "随想曲": 9762, "浪漫曲": 9763, "抒情": 9764, "船歌": 9765, "牧歌": 9766, "田园": 9767, "猎歌": 9768, "打猎": 9769, "波尔卡": 9770, "玛祖卡": 9771, "波洛涅兹": 9772, "塔兰泰": 9773, "阿勒曼": 9774, "库朗特": 9775, "萨拉班": 9776, "吉格": 9777, "小步舞曲": 9778, "加沃特": 9779, "布雷": 9780, "帕凡": 9781, "加利亚": 9782, "戈顿": 9783, "路尔": 9784, "帕萨卡": 9785, "利亚": 9786, "恰空": 9787, "中提琴": 9788, "大提琴": 9789, "低音提琴": 9790, "竖琴": 9791, "曼陀林": 9792, "班卓琴": 9793, "短笛": 9794, "高音": 9795, "单簧管": 9796, "双簧管": 9797, "大管": 9798, "小号": 9799, "圆号": 9800, "长号": 9801, "定音鼓": 9802, "军鼓": 9803, "大鼓": 9804, "钹": 9805, "三角铁": 9806, "木琴": 9807, "马林巴": 9808, "颤音": 9809, "琴": 9810, "钟琴": 9811, "管钟": 9812, "钢片琴": 9813, "风琴": 9814, "手风琴": 9815, "口琴": 9816, "箫": 9817, "唢呐": 9818, "笙": 9819, "京胡": 9820, "板胡": 9821, "胡": 9822, "高胡": 9823, "革胡": 9824, "柳琴": 9825, "阮": 9826, "月琴": 9827, "三弦": 9828, "古琴": 9829, "箜篌": 9830, "扬琴": 9831, "击": 9832, "编钟": 9833, "编磬": 9834, "木鱼": 9835, "锣": 9836, "鼓": 9837, "梆子": 9838, "快板": 9839, "蒸腾作用": 9840, "散失": 9841, "传导": 9842, "绽放": 9843, "传给": 9844, "子代": 9845, "变异": 9846, "寄居": 9847, "腐烂": 9848, "堆肥": 9849, "防治": 9850, "病虫害": 9851, "除草剂": 9852, "杂草": 9853, "杀虫剂": 9854, "害虫": 9855, "杀菌剂": 9856, "病菌": 9857, "生长素": 9858, "赤霉素": 9859, "脱落酸": 9860, "脱落": 9861, "乙烯": 9862, "素": 9863, "向光性": 9864, "向地性": 9865, "水性": 9866, "向水": 9867, "顶端优势": 9868, "春化": 9869, "光周期": 9870, "针叶": 9871, "针形叶": 9872, "阔叶": 9873, "宽大": 9874, "复叶": 9875, "小叶": 9876, "单叶": 9877, "叶柄": 9878, "叶序": 9879, "互生": 9880, "对生": 9881, "轮生": 9882, "多片": 9883, "直根系": 9884, "须": 9885, "不定根": 9886, "非根": 9887, "长出": 9888, "支柱": 9889, "块根": 9890, "膨大": 9891, "根瘤": 9892, "根上": 9893, "瘤": 9894, "状物": 9895, "菌根": 9896, "根与": 9897, "根压": 9898, "渗透": 9899, "半透膜": 9900, "扩散作用": 9901, "高浓度": 9902, "低浓度": 9903, "无机盐": 9904, "导管": 9905, "筛管": 9906, "形成层": 9907, "年轮": 9908, "同心": 9909, "树皮": 9910, "树干": 9911, "心材": 9912, "硬木": 9913, "边材": 9914, "新木": 9915, "髓": 9916, "薄壁组织": 9917, "尚未": 9918, "或花": 9919, "顶端": 9920, "侧面": 9921, "花芽": 9922, "成花": 9923, "叶芽": 9924, "裸芽": 9925, "休眠芽": 9926, "茎干": 9927, "侧枝": 9928, "分出": 9929, "梢": 9930, "当年": 9931, "老枝": 9932, "多年生": 9933, "短枝": 9934, "长枝": 9935, "结果枝": 9936, "开花结果": 9937, "营养枝": 9938, "只长": 9939, "徒长枝": 9940, "过旺": 9941, "萌蘖": 9942, "枝": 9943, "从根": 9944, "部长": 9945, "花轴": 9946, "花柄": 9947, "等长": 9948, "穗状花序": 9949, "无柄": 9950, "伞形花序": 9951, "头状花序": 9952, "密集": 9953, "头状": 9954, "圆锥花序": 9955, "分枝": 9956, "聚伞花序": 9957, "顶花": 9958, "先开": 9959, "两性花": 9960, "单性花": 9961, "雌雄同株": 9962, "一株": 9963, "雌雄异株": 9964, "株": 9965, "风媒花": 9966, "靠风": 9967, "虫媒花": 9968, "自花传粉": 9969, "异花传粉": 9970, "人工授粉": 9971, "真果": 9972, "肉果": 9973, "裂果": 9974, "闭果": 9975, "浆果": 9976, "多汁": 9977, "核果": 9978, "硬核": 9979, "梨果": 9980, "柑果": 9981, "柑橘类": 9982, "瓠果": 9983, "葫芦科": 9984, "荚果": 9985, "豆科": 9986, "蒴果": 9987, "瘦果": 9988, "小而干": 9989, "颖果": 9990, "禾本科": 9991, "坚硬": 9992, "翅果": 9993, "有翅状": 9994, "附属物": 9995, "分果": 9996, "成小果": 9997, "离生": 9998, "聚": 9999, "花果": 10000, "种皮": 10001, "幼小": 10002, "植物体": 10003, "单子叶": 10004, "双子叶": 10005, "答案": 10006, "旅程": 10007, "恶": 10008, "恶是": 10009, "真是": 10010, "假": 10011, "假是": 10012, "美是": 10013, "强是": 10014, "勇": 10015, "勇是": 10016, "逃避": 10017, "智": 10018, "智是": 10019, "愚": 10020, "愚是": 10021, "不明": 10022, "事理": 10023, "信": 10024, "信是": 10025, "是义": 10026, "义是": 10027, "礼": 10028, "礼是": 10029, "孝": 10030, "孝是": 10031, "尊敬": 10032, "忠": 10033, "忠是": 10034, "对人对事": 10035, "仁": 10036, "仁是": 10037, "德是": 10038, "品行": 10039, "是理": 10040, "理是": 10041, "法是": 10042, "情": 10043, "情是": 10044, "志": 10045, "志是": 10046, "寄托": 10047, "指引": 10048, "学问": 10049, "精神财富": 10050, "共同体": 10051, "实体": 10052, "人群": 10053, "血缘": 10054, "传授": 10055, "资质": 10056, "哪条": 10057, "遵守": 10058, "有条理": 10059, "武力": 10060, "生是": 10061, "可逆": 10062, "流逝": 10063, "极短": 10064, "不切实际": 10065, "在于": 10066, "不可": 10067, "表里如一": 10068, "自满": 10069, "不愿": 10070, "厌恶": 10071, "共产党员": 10072, "马克思": 10073, "全球性": 10074, "共产主义": 10075, "生产资料": 10076, "名誉": 10077, "暴力行为": 10078, "第二次": 10079, "修正": 10080, "安德鲁": 10081, "杰克逊": 10082, "淘宝": 10083, "京东": 10084, "抖音": 10085, "知乎": 10086, "小红书": 10087, "豆瓣": 10088, "腾讯": 10089, "爱奇艺": 10090, "优酷": 10091, "QQ号": 10092, "谷歌": 10093, "苹果": 10094, "ID": 10095, "微软": 10096, "用大": 10097, "小写字母": 10098, "解绑": 10099, "里解": 10100, "绑": 10101, "头像": 10102, "昵称": 10103, "签名": 10104, "通讯录": 10105, "按住": 10106, "里发": 10107, "发抖": 10108, "拍抖音": 10109, "论坛": 10110, "下方": 10111, "个人主页": 10112, "点发": 10113, "送上门": 10114, "里查": 10115, "柜": 10116, "驿站": 10117, "签收": 10118, "开发票": 10119, "打印发票": 10120, "邮局": 10121, "收信": 10122, "邮递员": 10123, "送信": 10124, "取药": 10125, "药房": 10126, "缴费": 10127, "收费": 10128, "窗口": 10129, "自助": 10130, "机": 10131, "医保": 10132, "单": 10133, "后办": 10134, "公益活动": 10135, "捐款": 10136, "还贷": 10137, "看房": 10138, "选房": 10139, "签约": 10140, "卖房": 10141, "中介": 10142, "找房": 10143, "房东": 10144, "装": 10145, "4S店": 10146, "看车": 10147, "试驾": 10148, "卖车": 10149, "二手车": 10150, "验车": 10151, "年检": 10152, "换证": 10153, "考驾照": 10154, "驾校": 10155, "约考": 10156, "查个": 10157, "交个": 10158, "代扣代缴": 10159, "报个": 10160, "退个": 10161, "欠款": 10162, "教务": 10163, "毕业证": 10164, "学位证": 10165, "在读": 10166, "成绩单": 10167, "推荐信": 10168, "在职": 10169, "开无": 10170, "户籍": 10171, "出生证明": 10172, "结婚": 10173, "离婚": 10174, "公证处": 10175, "大使馆": 10176, "护照": 10177, "港澳": 10178, "报错": 10179, "排查": 10180, "错误信息": 10181, "职责": 10182, "先拉取": 10183, "评审": 10184, "正确性": 10185, "可读性": 10186, "单元测试": 10187, "单个": 10188, "输入输出": 10189, "异常情况": 10190, "改动": 10191, "一分耕耘": 10192, "一分收获": 10193, "种瓜得瓜": 10194, "种豆得豆": 10195, "滴水穿石": 10196, "千里之行": 10197, "始于足下": 10198, "做起": 10199, "百闻不如一见": 10200, "读万卷书": 10201, "行万里路": 10202, "并重": 10203, "三人行": 10204, "必有我师": 10205, "虚心学习": 10206, "学如": 10207, "逆水行舟": 10208, "不进则退": 10209, "持之以恒": 10210, "书山": 10211, "路勤": 10212, "为径": 10213, "学海无涯": 10214, "苦作舟": 10215, "温故而知新": 10216, "知之为知之": 10217, "不知为不知": 10218, "学而不思": 10219, "则": 10220, "罔": 10221, "思而": 10222, "不学则": 10223, "殆": 10224, "不耻下问": 10225, "虚心": 10226, "敏而好学": 10227, "不以为耻": 10228, "羞耻": 10229, "知错就改": 10230, "取长补短": 10231, "长处": 10232, "扬长避短": 10233, "发挥优势": 10234, "适可而止": 10235, "见好就收": 10236, "居安思危": 10237, "想到": 10238, "未雨绸缪": 10239, "防患未然": 10240, "预防为主": 10241, "有备无患": 10242, "亡羊补牢": 10243, "为时不晚": 10244, "不算": 10245, "塞翁失马": 10246, "焉知非福": 10247, "坏事": 10248, "福兮祸所伏": 10249, "祸兮福所倚": 10250, "福祸": 10251, "相依": 10252, "物极必反": 10253, "极端": 10254, "反转": 10255, "到极点": 10256, "苦尽甘来": 10257, "之后": 10258, "柳暗花明": 10259, "困境": 10260, "峰回路转": 10261, "好转": 10262, "绝处逢生": 10263, "化险为夷": 10264, "转危为安": 10265, "逢凶化吉": 10266, "凶险": 10267, "化为": 10268, "遇难呈祥": 10269, "遇到困难": 10270, "因祸得福": 10271, "灾祸": 10272, "锦上添花": 10273, "雪中送炭": 10274, "如虎添翼": 10275, "更加": 10276, "画龙点睛": 10277, "一笔": 10278, "画蛇添足": 10279, "多此一举": 10280, "弄巧成拙": 10281, "反而": 10282, "做坏": 10283, "事半功倍": 10284, "事倍功半": 10285, "天时地利人和": 10286, "具备": 10287, "万事俱备": 10288, "只欠东风": 10289, "只差": 10290, "水到渠成": 10291, "条件成熟": 10292, "瓜熟蒂落": 10293, "时机成熟": 10294, "功到自然成": 10295, "如愿以偿": 10296, "称心如意": 10297, "皆大欢喜": 10298, "茅塞顿开": 10299, "恍然大悟": 10300, "豁然开朗": 10301, "如梦初醒": 10302, "醍醐灌顶": 10303, "拨云见日": 10304, "水落石出": 10305, "明明白白": 10306, "清清楚楚": 10307, "一清二楚": 10308, "一览无余": 10309, "尽收眼底": 10310, "一览无遗": 10311, "一目十行": 10312, "走马观花": 10313, "粗略地": 10314, "浮光掠影": 10315, "不深": 10316, "蜻蜓点水": 10317, "浅尝辄止": 10318, "深入研究": 10319, "深入浅出": 10320, "通俗易懂": 10321, "简单明了": 10322, "直截了当": 10323, "开门见山": 10324, "单刀直入": 10325, "直言不讳": 10326, "直言无隐": 10327, "心直口快": 10328, "直率": 10329, "快人快语": 10330, "爽快": 10331, "说一不二": 10332, "一言既出": 10333, "驷马难追": 10334, "金口玉言": 10335, "一锤定音": 10336, "拍板": 10337, "定案": 10338, "一锤子买卖": 10339, "一次性": 10340, "木已成舟": 10341, "覆水难收": 10342, "生米煮成熟饭": 10343, "开弓": 10344, "箭": 10345, "既来之": 10346, "则安之": 10347, "既然": 10348, "随遇而安": 10349, "入乡随俗": 10350, "客随主便": 10351, "恭敬不如从命": 10352, "好意": 10353, "盛情难却": 10354, "情面难却": 10355, "不情之请": 10356, "勉为其难": 10357, "却之不恭": 10358, "受之有愧": 10359, "惭愧": 10360, "残酷": 10361, "优柔寡断": 10362, "一段时间": 10363, "临床": 10364, "足够": 10365, "酒鬼": 10366, "接吻": 10367, "屁股": 10368, "吻": 10369, "神色": 10370, "错乱": 10371, "回避": 10372, "肚子": 10373, "至关重要": 10374, "跌": 10375, "逾": 10376, "刻薄": 10377, "自命不凡": 10378, "演戏": 10379, "上面": 10380, "相比": 10381, "平淡": 10382, "凌乱": 10383, "外观": 10384, "以为": 10385, "老实": 10386, "感性": 10387, "倍": 10388, "狂热": 10389, "敏感": 10390, "令人厌恶": 10391, "玩弄": 10392, "耐": 10393, "抗拒": 10394, "yyou": 10395, "形容": 10396, "懦夫": 10397, "走捷径": 10398, "育儿": 10399, "刚才": 10400, "半途而废": 10401, "骗人": 10402, "大不敬": 10403, "滑头": 10404, "太滑": 10405, "腐败": 10406, "很脏": 10407, "你试": 10408, "气死我了": 10409, "每一件": 10410, "本来": 10411, "打通": 10412, "不是故意": 10413, "乔": 10414, "克斯": 10415, "不加": 10416, "愧疚": 10417, "内疚": 10418, "咕哝": 10419, "交朋友": 10420, "共同话题": 10421, "私下": 10422, "对事": 10423, "说教": 10424, "承认错误": 10425, "歉意": 10426, "信任别人": 10427, "信守": 10428, "霸凌": 10429, "自主权": 10430, "套路": 10431, "PUA": 10432, "冷暴力": 10433, "庇护": 10434, "舆论压力": 10435, "同辈": 10436, "学业": 10437, "思绪": 10438, "期盼": 10439, "苦难": 10440, "吸取教训": 10441, "出发": 10442, "全力以赴": 10443, "抓住机遇": 10444, "权衡利弊": 10445, "分歧": 10446, "求同存异": 10447, "理性分析": 10448, "谣言": 10449, "传谣": 10450, "不信谣": 10451, "闲话": 10452, "背后议论": 10453, "挑衅": 10454, "不失": 10455, "风度": 10456, "恶意": 10457, "反击": 10458, "指正": 10459, "无理要求": 10460, "冷淡": 10461, "强求": 10462, "疏远": 10463, "亲密": 10464, "疏离": 10465, "给予": 10466, "语气": 10467, "听取": 10468, "乐于助人": 10469, "施恩": 10470, "受恩": 10471, "报恩": 10472, "知恩图报": 10473, "结怨": 10474, "化解矛盾": 10475, "不记": 10476, "仇恨": 10477, "报仇": 10478, "冤屈": 10479, "表达出来": 10480, "重新认识": 10481, "刻板": 10482, "具体分析": 10483, "勇于": 10484, "待人": 10485, "待己": 10486, "留给": 10487, "职": 10488, "维系": 10489, "时先": 10490, "翻旧账": 10491, "一致性": 10492, "透明度": 10493, "做到": 10494, "异地": 10495, "恋": 10496, "保持联系": 10497, "问候": 10498, "时才": 10499, "四节课": 10500, "高数": 10501, "体育课": 10502, "第二节": 10503, "期末考试": 10504, "周三": 10505, "周五": 10506, "挂科": 10507, "暑假": 10508, "出国": 10509, "雅思": 10510, "四六级": 10511, "四级": 10512, "六级": 10513, "科二过": 10514, "社": 10515, "兼职": 10516, "家教": 10517, "住校": 10518, "宿舍": 10519, "实验室": 10520, "发表": 10521, "投稿": 10522, "明年": 10523, "签": 10524, "哪家": 10525, "考教资": 10526, "考了": 10527, "笔试": 10528, "等级": 10529, "建模": 10530, "获奖": 10531, "省奖": 10532, "毕设": 10533, "不多够": 10534, "两千": 10535, "花销": 10536, "存": 10537, "送礼": 10538, "生日会": 10539, "一周": 10540, "节假日": 10541, "通话": 10542, "退过": 10543, "货": 10544, "你划": 10545, "会划": 10546, "背书": 10547, "每章": 10548, "别的": 10549, "几节课": 10550, "翘": 10551, "翘课": 10552, "抄": 10553, "不抄": 10554, "会用": 10555, "Word": 10556, "会列": 10557, "会选": 10558, "会加": 10559, "定律": 10560, "物理学家": 10561, "这事": 10562, "熵": 10563, "倒数": 10564, "阿伏": 10565, "伽": 10566, "德罗": 10567, "六点": 10568, "功率": 10569, "信息学": 10570, "奇特": 10571, "应用科学": 10572, "生物学": 10573, "罗马": 10574, "神话": 10575, "中爱": 10576, "阿芙": 10577, "罗狄蒂": 10578, "亮": 10579, "第六": 10580, "稠密": 10581, "表面温度": 10582, "直径": 10583, "12100": 10584, "7520": 10585, "公转": 10586, "225": 10587, "逆行": 10588, "243.01": 10589, "鱼类学": 10590, "H2O": 10591, "别称": 10592, "细菌学": 10593, "它们": 10594, "科学研究": 10595, "93": 10596, "意味着": 10597, "扰动": 10598, "放电": 10599, "雷声": 10600, "冲击波": 10601, "热带海洋": 10602, "薄弱": 10603, "地轴": 10604, "年月日": 10605, "涨潮": 10606, "落潮": 10607, "减弱": 10608, "洋流": 10609, "漩涡": 10610, "落下": 10611, "侵蚀": 10612, "绿洲": 10613, "地下水": 10614, "涌出": 10615, "积雪": 10616, "冻土": 10617, "间歇泉": 10618, "盐湖": 10619, "湖水": 10620, "沼泽": 10621, "畅": 10622, "水位": 10623, "长树": 10624, "苔原": 10625, "太冷": 10626, "针叶林": 10627, "阔叶林": 10628, "高温多雨": 10629, "季风": 10630, "林": 10631, "降到": 10632, "零度以下": 10633, "沸腾": 10634, "升到": 10635, "作用力": 10636, "无色": 10637, "无味": 10638, "挥发性": 10639, "比热容": 10640, "比冰大": 10641, "冰": 10642, "晶体结构": 10643, "表面张力": 10644, "极性": 10645, "氮气": 10646, "臭氧": 10647, "飞扬": 10648, "花粉": 10649, "气溶胶": 10650, "微粒": 10651, "真空": 10652, "共鸣": 10653, "噪音": 10654, "乐音": 10655, "音调": 10656, "响度": 10657, "振幅": 10658, "波形": 10659, "光滑": 10660, "颗粒": 10661, "两束": 10662, "偏振": 10663, "横波": 10664, "影子": 10665, "荧光": 10666, "磷光": 10667, "有货": 10668, "退换": 10669, "最低价": 10670, "质量保证": 10671, "优惠活动": 10672, "满减": 10673, "首页": 10674, "订单号": 10675, "太慢": 10676, "不便": 10677, "建议您": 10678, "九十九": 10679, "上架": 10680, "选购": 10681, "详情页": 10682, "银行卡": 10683, "四十八": 10684, "发韵": 10685, "中通": 10686, "指定": 10687, "抵扣": 10688, "优惠": 10689, "专属": 10690, "折扣": 10691, "代": 10692, "地址": 10693, "海外": 10694, "目前": 10695, "保修": 10696, "质保": 10697, "补发": 10698, "宪法": 10699, "根本大法": 10700, "刑法": 10701, "刑罚": 10702, "民法": 10703, "民事": 10704, "行政法": 10705, "经济法": 10706, "劳动法": 10707, "合同法": 10708, "婚姻法": 10709, "继承法": 10710, "继承": 10711, "权益保护法": 10712, "交通安全": 10713, "个人所得税法": 10714, "所得税法": 10715, "商标法": 10716, "专利法": 10717, "著作权法": 10718, "著作权": 10719, "正当竞争": 10720, "反垄断法": 10721, "垄断": 10722, "广告法": 10723, "价格法": 10724, "统计法": 10725, "审计法": 10726, "会计法": 10727, "银行法": 10728, "保险法": 10729, "证券法": 10730, "信托法": 10731, "信托": 10732, "基金法": 10733, "海关法": 10734, "海关": 10735, "检验法": 10736, "国籍法": 10737, "国籍": 10738, "选举法": 10739, "选举": 10740, "示威": 10741, "义务教育法": 10742, "义务教育": 10743, "高等教育法": 10744, "高等教育": 10745, "教育法": 10746, "促进法": 10747, "教师法": 10748, "权利义务": 10749, "科学技术": 10750, "科技进步": 10751, "科技成果": 10752, "土地管理法": 10753, "投标法": 10754, "投标": 10755, "公益事业": 10756, "暂行条例": 10757, "村民": 10758, "村委会": 10759, "城市居民": 10760, "居委会": 10761, "行政诉讼法": 10762, "行政诉讼": 10763, "赔偿法": 10764, "国家赔偿": 10765, "行政处罚法": 10766, "行政处罚": 10767, "许可法": 10768, "行政许可": 10769, "公务员法": 10770, "公务员": 10771, "法官法": 10772, "法官": 10773, "检察官法": 10774, "检察官": 10775, "律师法": 10776, "公证法": 10777, "调解法": 10778, "人民调解": 10779, "商事": 10780, "自行解决": 10781, "起诉": 10782, "提起": 10783, "抗诉": 10784, "检察院": 10785, "当事人": 10786, "先予执行": 10787, "前先": 10788, "强制执行": 10789, "裁定": 10790, "程序性": 10791, "调解书": 10792, "侵权": 10793, "定金": 10794, "履行": 10795, "保证金": 10796, "押金": 10797, "预付款": 10798, "预先": 10799, "尾款": 10800, "剩余": 10801, "全款": 10802, "次": 10803, "年利率": 10804, "月利率": 10805, "日利率": 10806, "本息": 10807, "年限": 10808, "年数": 10809, "不良": 10810, "管理体系": 10811, "个人信用": 10812, "企业信用": 10813, "信用风险": 10814, "操作失误": 10815, "流动性": 10816, "资金不足": 10817, "受损": 10818, "失误": 10819, "个别": 10820, "规避": 10821, "自留": 10822, "承担风险": 10823, "对冲": 10824, "抵消": 10825, "责任保险": 10826, "再保险": 10827, "保单": 10828, "保险合同": 10829, "保额": 10830, "保险金额": 10831, "赔额": 10832, "保险期限": 10833, "有效期": 10834, "投保人": 10835, "被保险人": 10836, "受益人": 10837, "代理人": 10838, "公估": 10839, "老年": 10840, "医疗保险": 10841, "工伤保险": 10842, "机关": 10843, "事业单位": 10844, "养老金": 10845, "商业保险": 10846, "养老院": 10847, "居家": 10848, "医养": 10849, "院": 10850, "康复中心": 10851, "康复": 10852, "临终关怀": 10853, "临终": 10854, "遗嘱": 10855, "生前": 10856, "遗赠": 10857, "赠送": 10858, "遗产税": 10859, "赠与税": 10860, "赠与": 10861, "契税": 10862, "房产交易": 10863, "教育费": 10864, "建设费": 10865, "保障金": 10866, "职工": 10867, "教育经费": 10868, "职工教育": 10869, "福利费": 10870, "职工福利": 10871, "社会保险费": 10872, "财产税": 10873, "资源税": 10874, "农业税": 10875, "城镇": 10876, "使用税": 10877, "土地增值": 10878, "房产税": 10879, "房产": 10880, "车船税": 10881, "车船": 10882, "吨": 10883, "PRO": 10884, "FAKIE": 10885, "INSIDE": 10886, "滑雪板": 10887, "高大": 10888, "硬": 10889, "生皮": 10890, "木棒": 10891, "选手": 10892, "球队": 10893, "发挥": 10894, "四种": 10895, "碱基": 10896, "电路": 10897, "圆球": 10898, "扮演": 10899, "任": 10900, "一端": 10901, "踢": 10902, "除了": 10903, "那么": 10904, "蟋蟀": 10905, "球场": 10906, "22": 10907, "码长": 10908, "检票口": 10909, "三木": 10910, "树桩": 10911, "选址": 10912, "男篮": 10913, "运动员": 10914, "乔治": 10915, "赫尔曼": 10916, "露丝": 10917, "贝贝": 10918, "PLAYER": 10919, "马拉多纳": 10920, "Sinsemillia": 10921, "甚至": 10922, "各六人": 10923, "过网": 10924, "球杆": 10925, "将球": 10926, "打入": 10927, "跳水": 10928, "跳入": 10929, "花样游泳": 10930, "马拉松": 10931, "短跑": 10932, "接力赛": 10933, "接力棒": 10934, "跨栏": 10935, "跨越": 10936, "栏架": 10937, "横杆": 10938, "三级跳": 10939, "撑杆跳": 10940, "杆子": 10941, "推掷": 10942, "铁饼": 10943, "掷铁饼": 10944, "艺术体操": 10945, "床上": 10946, "举起": 10947, "搏斗": 10948, "摔倒": 10949, "脚踢": 10950, "用剑": 10951, "用弓": 10952, "用枪": 10953, "马术": 10954, "帆船": 10955, "水上运动": 10956, "皮划艇": 10957, "用桨": 10958, "赛艇": 10959, "铁人三项": 10960, "现代五项": 10961, "趴在": 10962, "跳下": 10963, "山上": 10964, "滑下": 10965, "一块": 10966, "板上": 10967, "滑翔伞": 10968, "空中": 10969, "岩壁": 10970, "海浪": 10971, "滑水": 10972, "船拉着": 10973, "水上": 10974, "帆板": 10975, "水下": 10976, "浮潜": 10977, "面罩": 10978, "溪降": 10979, "溯": 10980, "溪": 10981, "沿着": 10982, "行驶": 10983, "小型赛车": 10984, "拉力赛": 10985, "方程式赛车": 10986, "轮式": 10987, "公路赛": 10988, "公路": 10989, "赛": 10990, "在场": 10991, "越野赛": 10992, "BMX": 10993, "小轮": 10994, "滑板": 10995, "轮滑": 10996, "穿着": 10997, "轮滑鞋": 10998, "冰上表演": 10999, "短跑道": 11000, "垒球": 11001, "用板": 11002, "曲棍球": 11003, "用棍": 11004, "马球": 11005, "手球": 11006, "用手": 11007, "传球": 11008, "壁球": 11009, "墙壁": 11010, "沙滩排球": 11011, "沙滩": 11012, "坐式": 11013, "门球": 11014, "球类运动": 11015, "田径运动": 11016, "少林拳": 11017, "八卦掌": 11018, "形意拳": 11019, "八极拳": 11020, "劈挂拳": 11021, "翻": 11022, "子拳": 11023, "螳螂拳": 11024, "猴拳": 11025, "鹤拳": 11026, "龙拳": 11027, "醉拳": 11028, "地躺拳": 11029, "地功": 11030, "通背拳": 11031, "劈": 11032, "掌": 11033, "翻子": 11034, "红拳": 11035, "花拳": 11036, "华拳": 11037, "查拳": 11038, "炮拳": 11039, "洪拳": 11040, "蔡": 11041, "李佛拳": 11042, "白鹤": 11043, "五祖拳": 11044, "太祖": 11045, "罗汉拳": 11046, "蛇形": 11047, "刁手": 11048, "截拳道": 11049, "李小龙": 11050, "创立": 11051, "合气道": 11052, "泰拳": 11053, "卡利": 11054, "桑搏": 11055, "克拉夫": 11056, "玛加": 11057, "散打": 11058, "中国武术": 11059, "桩": 11060, "打坐": 11061, "静坐": 11062, "吐纳": 11063, "导引": 11064, "五禽戏": 11065, "创编": 11066, "八段锦": 11067, "易筋经": 11068, "六字": 11069, "诀": 11070, "推手": 11071, "双人": 11072, "太极剑": 11073, "木兰拳": 11074, "扇术": 11075, "这道题": 11076, "哪道题": 11077, "多读": 11078, "听课": 11079, "导论": 11080, "人脑": 11081, "神经元": 11082, "选题": 11083, "文献": 11084, "综述": 11085, "指": 11086, "链是": 11087, "初学者": 11088, "计算机硬件": 11089, "系统化": 11090, "开发软件": 11091, "多刷题": 11092, "基础知识": 11093, "软件工具": 11094, "化是": 11095, "及其": 11096, "打包": 11097, "分为": 11098, "方法论": 11099, "频繁": 11100, "自动测试": 11101, "成员": 11102, "重用": 11103, "轻量级": 11104, "数据交换": 11105, "格式": 11106, "符": 11107, "端的": 11108, "做题": 11109, "画图": 11110, "英语口语": 11111, "多练": 11112, "母语": 11113, "发音": 11114, "词根": 11115, "词缀": 11116, "语境": 11117, "返回值": 11118, "调试程序": 11119, "变量值": 11120, "函数调用": 11121, "为子": 11122, "每步": 11123, "局部": 11124, "最优": 11125, "回退": 11126, "顺序排列": 11127, "表是": 11128, "栈": 11129, "栈是": 11130, "后进先出": 11131, "指针": 11132, "树是": 11133, "图是": 11134, "差会": 11135, "做周": 11136, "讲师": 11137, "重述": 11138, "并举": 11139, "一两个": 11140, "联想": 11141, "区别": 11142, "多层": 11143, "控制参数": 11144, "步长": 11145, "太小": 11146, "一份": 11147, "主线": 11148, "更牢": 11149, "倒逼": 11150, "闭环": 11151, "行动计划": 11152, "空想": 11153, "融合": 11154, "雾": 11155, "黑帽": 11156, "非法": 11157, "勒索": 11158, "索要": 11159, "赎金": 11160, "骗取": 11161, "网络攻击": 11162, "明文": 11163, "UDP": 11164, "4G": 11165, "第四代": 11166, "光纤": 11167, "用光": 11168, "传输数据": 11169, "线缆": 11170, "卫星通信": 11171, "RSS": 11172, "单体": 11173, "整体式": 11174, "控系统": 11175, "闭源": 11176, "自由软件": 11177, "共享软件": 11178, "试用": 11179, "免费软件": 11180, "商业软件": 11181, "版权": 11182, "互操作性": 11183, "协同工作": 11184, "兼容性": 11185, "可扩展性": 11186, "可靠性": 11187, "可用性": 11188, "延迟": 11189, "吞吐量": 11190, "并行": 11191, "回调": 11192, "轮询": 11193, "推送": 11194, "拉取": 11195, "获取信息": 11196, "订阅": 11197, "响铃": 11198, "日程": 11199, "待办": 11200, "备忘录": 11201, "年报": 11202, "决算": 11203, "出纳": 11204, "税收": 11205, "失业率": 11206, "基尼系数": 11207, "恩格尔系数": 11208, "占": 11209, "总支出": 11210, "旅游景点": 11211, "值得一看": 11212, "三亚": 11213, "订": 11214, "淡季": 11215, "订票": 11216, "度假": 11217, "文化底蕴": 11218, "常用药": 11219, "换洗": 11220, "构图": 11221, "最少": 11222, "游是": 11223, "行是": 11224, "行程": 11225, "旅行团": 11226, "背着": 11227, "背包": 11228, "当地人": 11229, "地点": 11230, "留念": 11231, "开阔眼界": 11232, "出差": 11233, "列": 11234, "必需品": 11235, "37": 11236, "届": 11237, "理查德": 11238, "尼克松": 11239, "肯尼迪": 11240, "哪年": 11241, "遇刺": 11242, "身亡": 11243, "1963": 11244, "霸主": 11245, "苏联": 11246, "第一颗": 11247, "人造地球": 11248, "名称": 11249, "普特": 11250, "尼克": 11251, "1990": 11252, "近地": 11253, "天文学家": 11254, "爱德": 11255, "温": 11256, "哈伯": 11257, "天佑": 11258, "女王": 11259, "国歌": 11260, "大不列颠": 11261, "联合王国": 11262, "声纳": 11263, "物品": 11264, "路滑": 11265, "沙尘暴": 11266, "门窗": 11267, "雷阵雨": 11268, "树下": 11269, "避雨": 11270, "大雾": 11271, "霜冻": 11272, "防冻": 11273, "暴雨": 11274, "防范": 11275, "寒潮": 11276, "暴雪": 11277, "地质灾害": 11278, "防潮": 11279, "保湿": 11280, "压低": 11281, "操场": 11282, "几圈": 11283, "兜风": 11284, "河边": 11285, "广场": 11286, "室内运动": 11287, "改天": 11288, "云太厚": 11289, "晴天": 11290, "出去玩": 11291, "多云": 11292, "阴天": 11293, "有雷": 11294, "雨雪": 11295, "升温": 11296, "有雨": 11297, "无雨": 11298, "今年夏天": 11299, "今年冬天": 11300, "疫情": 11301, "目的地": 11302, "多少度": 11303, "二十多": 11304, "风大": 11305, "不大": 11306, "适宜": 11307, "阳光充足": 11308, "有雪": 11309, "冰面": 11310, "结实": 11311, "花开": 11312, "刚": 11313, "下过": 11314, "看雨": 11315, "听雨": 11316, "看雾": 11317, "看霜": 11318, "看冰": 11319, "防滑": 11320, "看风": 11321, "防风": 11322, "雷电": 11323, "今晚": 11324, "河": 11325, "辽阔": 11326, "清香": 11327, "幽静": 11328, "桃花": 11329, "桃花开": 11330, "开得": 11331, "很香": 11332, "银杏树": 11333, "梧桐树": 11334, "白桦树": 11335, "白桦": 11336, "很壮": 11337, "荫": 11338, "养蚕": 11339, "葡萄藤": 11340, "樱桃园": 11341, "樱桃红": 11342, "芒果树": 11343, "芒果": 11344, "荔枝树": 11345, "荔枝": 11346, "龙眼树": 11347, "龙眼": 11348, "柠檬树": 11349, "椰子树": 11350, "椰子": 11351, "杨": 11352, "梅树": 11353, "杨梅": 11354, "枇杷树": 11355, "枇杷": 11356, "无花果树": 11357, "无花果": 11358, "核桃树": 11359, "核桃": 11360, "开心果": 11361, "看腰": 11362, "腰果": 11363, "果熟": 11364, "看碧根果": 11365, "碧根果": 11366, "白": 11367, "水稻田": 11368, "水稻": 11369, "麦子": 11370, "玉米地": 11371, "辣椒红": 11372, "紫": 11373, "逼": 11374, "太紧": 11375, "老板": 11376, "就行": 11377, "辞职": 11378, "真诚待人": 11379, "再说": 11380, "轻重缓急": 11381, "做客": 11382, "市场推广": 11383, "渠道": 11384, "产品设计": 11385, "易用": 11386, "避税": 11387, "选育": 11388, "用留": 11389, "考核": 11390, "做法": 11391, "务": 11392, "防控": 11393, "法律咨询": 11394, "货比三家": 11395, "保证质量": 11396, "仓储": 11397, "盘点": 11398, "质量第一": 11399, "至上": 11400, "研发": 11401, "做运维": 11402, "访谈": 11403, "问卷调查": 11404, "对比": 11405, "优劣势": 11406, "客户关系": 11407, "回访": 11408, "满意度": 11409, "供应链": 11410, "质量标准": 11411, "预案": 11412, "容忍": 11413, "梳理": 11414, "现状": 11415, "找出": 11416, "审核": 11417, "拓展": 11418, "客": 11419, "单价": 11420, "增加收入": 11421, "应收": 11422, "应付": 11423, "估值": 11424, "持有": 11425, "尽职": 11426, "整合": 11427, "架构设计": 11428, "扁平": 11429, "严格": 11430, "培训": 11431, "课程设计": 11432, "薪酬": 11433, "对标": 11434, "宣导": 11435, "充分准备": 11436, "互利": 11437, "共赢": 11438, "把握": 11439, "写作技巧": 11440, "周度": 11441, "副业": 11442, "带货": 11443, "售后服务": 11444, "私域": 11445, "精细": 11446, "做公域": 11447, "SEO": 11448, "获客": 11449, "人设": 11450, "打造": 11451, "跨界": 11452, "互补": 11453, "联合": 11454, "公关": 11455, "可行": 11456, "ESG": 11457, "环境治理": 11458, "外链": 11459, "电子邮件": 11460, "个性化": 11461, "线下": 11462, "环节": 11463, "做线": 11464, "宣传": 11465, "拉新": 11466, "促活": 11467, "漏斗": 11468, "RFM": 11469, "精细化": 11470, "A": 11471, "计划书": 11472, "介绍": 11473, "利益一致": 11474, "董事会": 11475, "议事规则": 11476, "行为准则": 11477, "描绘": 11478, "坚定信心": 11479, "稳步": 11480, "推进": 11481, "善后处理": 11482, "路线图": 11483, "激励机制": 11484, "有机": 11485, "领先": 11486, "细分": 11487, "蓝海": 11488, "拆分": 11489, "先讲": 11490, "和备": 11491, "选项": 11492, "厘清": 11493, "诉求": 11494, "双赢": 11495, "对齐": 11496, "深耕": 11497, "大有": 11498, "学学习": 11499, "心有": 11500, "围裙": 11501, "安宁": 11502, "运用": 11503, "缝": 11504, "桌子": 11505, "捡": 11506, "抬": 11507, "推": 11508, "门": 11509, "拌": 11510, "揉": 11511, "摊": 11512, "尝": 11513, "摸": 11514, "刨": 11515, "剥": 11516, "吹": 11517, "收藏": 11518, "转发": 11519, "点赞": 11520, "复利": 11521, "利滚利": 11522, "退休金": 11523, "派对": 11524, "消消": 11525, "玩卡牌": 11526, "大师": 11527, "白银": 11528, "青铜": 11529, "玩家": 11530, "王羲之": 11531, "书圣": 11532, "王维": 11533, "诗佛": 11534, "象鼻虫": 11535, "火箭": 11536, "皮艇": 11537, "一群": 11538, "那里": 11539, "双胞胎": 11540, "......": 11541, "杀人犯": 11542, "磨砂": 11543, "片": 11544, "小偷": 11545, "端口": 11546, "马路": 11547, "千米": 11548, "萌发": 11549, "说定了": 11550, "不要紧": 11551, "无所谓": 11552, "考公": 11553, "考编": 11554, "天天": 11555, "早退": 11556, "旷课": 11557, "代签": 11558, "代考": 11559, "好远": 11560, "陪聊": 11561, "狭窄": 11562, "学钉": 11563, "飞书": 11564, "学飞": 11565, "学龙": 11566, "学穿": 11567, "丁在": 11568, "丁有": 11569, "心在": 11570, "学社": 11571, "天竺鼠": 11572, "豚鼠": 11573, "家禽": 11574, "门牙": 11575, "天性": 11576, "父亲": 11577, "泳衣": 11578, "安装": 11579, "安全软件": 11580, "最短": 11581, "更强": 11582, "不懈": 11583, "更优": 11584, "刚到": 11585, "小说": 11586, "你学": 11587, "你练": 11588, "做作业": 11589, "玩游戏": 11590, "还书": 11591, "开门": 11592, "你关": 11593, "关窗": 11594, "晾": 11595, "晾衣服": 11596, "扣子": 11597, "剪": 11598, "扫": 11599, "扫地": 11600, "椅子": 11601, "窗帘": 11602, "瓶盖": 11603, "你拔": 11604, "插头": 11605, "果子": 11606, "你切": 11607, "剁": 11608, "剁肉": 11609, "烤面包": 11610, "炸": 11611, "炸鸡腿": 11612, "炖": 11613, "炖排骨": 11614, "倒水": 11615, "奶粉": 11616, "搅": 11617, "和面": 11618, "烙": 11619, "烙饼": 11620, "煎饼": 11621, "卷": 11622, "卷饼": 11623, "夹菜": 11624, "浇汁": 11625, "撒": 11626, "撒盐": 11627, "你加": 11628, "放醋": 11629, "滴": 11630, "滴油": 11631, "味道": 11632, "你品": 11633, "品尝": 11634, "你闻": 11635, "香味": 11636, "你数": 11637, "你量": 11638, "量尺寸": 11639, "称重量": 11640, "算账": 11641, "记笔记": 11642, "贴标签": 11643, "钉钉子": 11644, "螺丝": 11645, "锯": 11646, "锯木": 11647, "头": 11648, "木板": 11649, "凿": 11650, "凿孔": 11651, "钻洞": 11652, "磨": 11653, "磨刀": 11654, "削苹果": 11655, "嗑": 11656, "嗑瓜子": 11657, "吸": 11658, "吸管": 11659, "气球": 11660, "泥巴": 11661, "搓澡": 11662, "挠": 11663, "挠痒痒": 11664, "拍照片": 11665, "你录": 11666, "你播": 11667, "快进": 11668, "不拉黑": 11669, "情怀": 11670, "很帅": 11671, "闪光点": 11672, "亲吻": 11673, "溺爱": 11674, "心沉": 11675, "心落": 11676, "升": 11677, "托": 11678, "心飘": 11679, "心飞": 11680, "心收": 11681, "心放": 11682, "心灯": 11683, "点亮": 11684, "心火": 11685, "心冰": 11686, "融化": 11687, "心磁": 11688, "心语": 11689, "心愿": 11690, "许个": 11691, "愿": 11692, "心结": 11693, "解开": 11694, "听听看": 11695, "说学": 11696, "逗逗": 11697, "犒劳": 11698, "焖饭": 11699, "英雄": 11700, "联盟": 11701, "精英": 11702, "原神": 11703, "绝地": 11704, "求生": 11705, "守望": 11706, "先锋": 11707, "CSGO": 11708, "DOTA2": 11709, "玩炉石": 11710, "传说": 11711, "阴阳师": 11712, "明日": 11713, "方舟": 11714, "崩坏": 11715, "第五": 11716, "玩光遇": 11717, "玩蛋": 11718, "仔": 11719, "迷你": 11720, "庄园": 11721, "大战": 11722, "斗地主": 11723, "五子棋": 11724, "跳棋": 11725, "军棋": 11726, "飞行棋": 11727, "大富翁": 11728, "真心话": 11729, "大冒险": 11730, "玩狼人": 11731, "拼图": 11732, "玩乐": 11733, "魔方": 11734, "华容道": 11735, "玩数": 11736, "独": 11737, "填字游戏": 11738, "猜谜语": 11739, "脑筋": 11740, "急转弯": 11741, "接龙": 11742, "飞花": 11743, "令": 11744, "歌名": 11745, "卧底": 11746, "海龟": 11747, "石头": 11748, "剪刀": 11749, "24": 11750, "猜猜猜": 11751, "看图": 11752, "汉字": 11753, "找茬": 11754, "2048": 11755, "贪吃蛇": 11756, "方块": 11757, "砖块": 11758, "弹球": 11759, "酷": 11760, "玩音游": 11761, "Cytus": 11762, "Arcaea": 11763, "Phigros": 11764, "MuseDash": 11765, "玩太鼓": 11766, "跳舞机": 11767, "玩体": 11768, "VR": 11769, "AR": 11770, "玩云": 11771, "主机": 11772, "PC": 11773, "玩手": 11774, "玩页": 11775, "玩沙盒": 11776, "格斗游戏": 11777, "角色扮演": 11778, "玩塔防": 11779, "解谜": 11780, "恐怖": 11781, "冒险游戏": 11782, "动作游戏": 11783, "休闲游戏": 11784, "益智": 11785, "玩多人": 11786, "单机游戏": 11787, "联机": 11788, "网游": 11789, "玩电": 11790, "竞": 11791, "卡党": 11792, "佛系": 11793, "随缘": 11794, "肝帝": 11795, "半年": 11796, "好久": 11797, "老": 11798, "黄金": 11799, "混子": 11800, "大腿": 11801, "打野": 11802, "中单": 11803, "上单": 11804, "下路": 11805, "自由人": 11806, "梵蒂冈": 11807, "汤姆": 11808, "提到": 11809, "指导": 11810, "Malli": 11811, "Raghava": 11812, "摔": 11813, "屋顶": 11814, "走来": 11815, "有待": 11816, "龋齿": 11817, "蛀牙": 11818, "自我管理": 11819, "脸": 11820, "破例": 11821, "保持沉默": 11822, "傻瓜": 11823, "嘴": 11824, "疑问": 11825, "签出": 11826, "两只": 11827, "秃鹰": 11828, "登上": 11829, "每人": 11830, "两具": 11831, "浣熊": 11832, "空姐": 11833, "阻止": 11834, "先生": 11835, "每名": 11836, "旅客": 11837, "腐肉": 11838, "那到": 11839, "热狗": 11840, "发言权": 11841, "美国航空航天局": 11842, "黑白花": 11843, "送入": 11844, "称为": 11845, "从众": 11846, "拍摄": 11847, "环游世界": 11848, "棉子": 11849, "s": 11850, "好莱坞": 11851, "留在": 11852, "从不": 11853, "达多": 11854, "出名": 11855, "2": 11856, "爱斯基摩": 11857, "起火": 11858, "沉没": 11859, "船只": 11860, "格言": 11861, "3": 11862, "条腿": 11863, "老西": 11864, "轿车": 11865, "滑": 11866, "并且": 11867, "爪子": 11868, "奴佛卡因": 11869, "牙科": 11870, "爱好者": 11871, "住进": 11872, "国际象棋": 11873, "大堂": 11874, "办公室": 11875, "散": 11876, "无法忍受": 11877, "门厅": 11878, "吹嘘": 11879, "人去": 11880, "发送到": 11881, "胡安": 11882, "胡安送": 11883, "母亲": 11884, "丈夫": 11885, "皮特": 11886, "缘故": 11887, "娟": 11888, "修道士": 11889, "钟楼": 11890, "从神": 11891, "蓬勃发展": 11892, "生意": 11893, "于是": 11894, "削减": 11895, "聘请": 11896, "mctaggert": 11897, "镇上": 11898, "卑鄙": 11899, "恶棍": 11900, "殴打": 11901, "摧毁": 11902, "鲜花": 11903, "捣毁": 11904, "他会": 11905, "吓坏": 11906, "关门大吉": 11907, "躲到": 11908, "圣雄甘地": 11909, "所知": 11910, "赤脚": 11911, "令人": 11912, "深刻": 11913, "老茧": 11914, "这使": 11915, "身体虚弱": 11916, "古怪": 11917, "如此": 11918, "诅咒": 11919, "超茧": 11920, "神秘主义": 11921, "10": 11922, "会令": 11923, "开怀大笑": 11924, "不幸": 11925, "汉堡包": 11926, "决赛": 11927, "草坪": 11928, "洒水": 11929, "酸涩": 11930, "助理": 11931, "年轻人": 11932, "罂粟": 11933, "臭鼬": 11934, "鼎": 11935, "果冻": 11936, "bug": 11937, "罐头": 11938, "沙": 11939, "紫色": 11940, "笑声": 11941, "比喻": 11942, "平时": 11943, "默默无闻": 11944, "三心二意": 11945, "专一": 11946, "千言万语": 11947, "氨基酸": 11948, "催化": 11949, "生化": 11950, "增亮": 11951, "极轻": 11952, "所谓": 11953, "世界性": 11954, "阴谋论": 11955, "怎敌": 11956, "来风": 11957, "急": 11958, "雁过": 11959, "满地": 11960, "黄花": 11961, "憔悴": 11962, "损": 11963, "黄昏": 11964, "点点滴滴": 11965, "这次": 11966, "无机": 11967, "非金属材料": 11968, "赌场": 11969, "炒股": 11970, "除非": 11971, "不然": 11972, "战胜": 11973, "从技术上": 11974, "稀缺": 11975, "消耗率": 11976, "3000": 11977, "发行股票": 11978, "拥有者": 11979, "唱法": 11980, "歌曲": 11981, "结出": 11982, "单花": 11983, "朵花": 11984, "爱是": 11985, "无条件": 11986, "达到目标": 11987, "以此": 11988, "修正案": 11989, "体检中心": 11990, "疾控中心": 11991, "过后": 11992, "有话直说": 11993, "实话实说": 11994, "一言为定": 11995, "脑残": 11996, "不用谢": 11997, "举手之劳": 11998, "算了": 11999, "不怪": 12000, "大不了": 12001, "有点烦": 12002, "说来听听": 12003, "别急": 12004, "慢慢说": 12005, "别介意": 12006, "介意": 12007, "你绩": 12008, "奖学金": 12009, "导师": 12010, "王老师": 12011, "普通话": 12012, "二甲": 12013, "收礼": 12014, "发消息": 12015, "硕博": 12016, "连读": 12017, "页眉": 12018, "页脚": 12019, "病": 12020, "致癌物": 12021, "物理学": 12022, "化学品": 12023, "医学": 12024, "手术": 12025, "一波": 12026, "给定": 12027, "相位": 12028, "看作": 12029, "地心吸力": 12030, "系甘": 12031, "平均": 12032, "25": 12033, "金星": 12034, "`": 12035, "只算": 12036, "保费": 12037, "保险费": 12038, "经纪人": 12039, "中介人": 12040, "十一": 12041, "踢球": 12042, "各五人": 12043, "各九人": 12044, "跑垒": 12045, "用棒": 12046, "某段": 12047, "物价上涨": 12048, "盘": 12049, "转轴": 12050, "陀螺": 12051, "陆棚": 12052, "大陆": 12053, "大陆架": 12054, "转晴": 12055, "蹦极": 12056, "漂流": 12057, "自驾": 12058, "石榴": 12059, "柿子": 12060}, "id2word": {"0": "_PAD", "1": "_BOS", "2": "_EOS", "3": "_UNK", "4": "是", "5": "什么", "6": "，", "7": "的", "8": "。", "9": "？", "10": "怎么", "11": "你", "12": "和", "13": "有", "14": "我", "15": "做", "16": "吗", "17": "、", "18": "今天", "19": "很", "20": "适合", "21": "再", "22": "了", "23": "觉得", "24": "先", "25": "用", "26": "自己", "27": "不", "28": "看", "29": "在", "30": "目标", "31": "项目", "32": "更", "33": "你好", "34": "也", "35": "基础", "36": "能", "37": "哪些", "38": "需要", "39": "入门", "40": "并", "41": "练习", "42": "学习", "43": "穿", "44": "会", "45": "时间", "46": "任务", "47": "好", "48": "可以", "49": "人", "50": "复盘", "51": "坚持", "52": "被", "53": "去", "54": "常见", "55": "掌握", "56": "处理", "57": "文档", "58": "为什么", "59": "学", "60": "明确", "61": "问题", "62": "建议", "63": "效果", "64": "中国", "65": "重要", "66": "把", "67": "进步", "68": "误区", "69": "计划", "70": "及时", "71": "长期", "72": "定期", "73": ",", "74": "保持", "75": "到", "76": "心", "77": "不够", "78": "核心", "79": "持续", "80": "设定", "81": "检测", "82": "因为", "83": "节奏", "84": "上", "85": "能力", "86": "避免", "87": "方法", "88": "多久", "89": "官方", "90": "阶段性", "91": "逐步", "92": "或", "93": "自学", "94": "实践", "95": "解决", "96": "短期", "97": "课程", "98": "小", "99": "手机", "100": "突破", "101": "与", "102": "记录", "103": "从", "104": "运动", "105": "固定", "106": "管理", "107": "参加", "108": "一个", "109": "最", "110": "玩", "111": "中", "112": "通常", "113": "多", "114": "注意", "115": "常见问题", "116": "通过", "117": "关键", "118": "国家", "119": "高", "120": "拆解", "121": "笔记", "122": "但", "123": "反馈", "124": "积累", "125": "看到", "126": "知识", "127": "提高", "128": "难", "129": "更好", "130": "只", "131": "如何", "132": "高效", "133": "取决于", "134": "《", "135": "》", "136": "分析", "137": "整理", "138": "建立", "139": "点", "140": "时", "141": "两", "142": "喜欢", "143": "评估", "144": "法律", "145": "对", "146": "没有", "147": "行动", "148": "经典", "149": "资料", "150": "制定", "151": "每天", "152": "优先级", "153": "题", "154": "回顾", "155": "教材", "156": "来", "157": "帮助", "158": "实际", "159": "减少", "160": "规定", "161": "吃", "162": "想", "163": "优化", "164": "寻求", "165": "实用技巧", "166": "改进", "167": "业务", "168": "模仿", "169": "大", "170": "形成", "171": "评价", "172": "投入", "173": "数据", "174": "怎么办", "175": "巩固", "176": "三周", "177": "工具", "178": "留出", "179": "成熟", "180": "环境", "181": "要", "182": "压力", "183": "结合", "184": "而", "185": "调整", "186": "里", "187": "拆小", "188": "收集", "189": "主干", "190": "资源", "191": "中断", "192": "成功率", "193": "快速", "194": "相关", "195": "让", "196": "提升", "197": "找到", "198": "理解", "199": "查", "200": "串联", "201": "逻辑", "202": "过度", "203": "体验", "204": "说", "205": "研究", "206": "补充", "207": "真正", "208": "水平", "209": "路径", "210": "允许", "211": "音乐", "212": "就", "213": "合理", "214": "案例", "215": "配合", "216": "快乐", "217": "正确", "218": "关注", "219": "说明", "220": "最后", "221": "高质量", "222": "完整", "223": "加", "224": "沟通", "225": "性能", "226": "不难", "227": "扩展", "228": "优先", "229": "范围", "230": "体系", "231": "讲解", "232": "系统", "233": "竞争力", "234": "必要", "235": "版本", "236": "急于求成", "237": "先跑", "238": "通小", "239": "少而精", "240": "深入", "241": "细节", "242": "大纲", "243": "讲清楚", "244": "场景", "245": "可", "246": "可用", "247": "选型", "248": "解决办法", "249": "开始", "250": "拆成", "251": "机制", "252": "优质", "253": "表达", "254": "缩小", "255": "最好", "256": "社区", "257": "手", "258": "走弯路", "259": "习惯", "260": "基本概念", "261": "工作", "262": "复现", "263": "感觉", "264": "小步", "265": "仍", "266": "需", "267": "样式", "268": "卡点", "269": "示例", "270": "日", "271": "损失", "272": "即可", "273": "替换成", "274": "最佳", "275": "不要", "276": "进阶", "277": "工程化", "278": "周", "279": "休息时间", "280": "都", "281": "传统", "282": "古代", "283": "选择", "284": "什么游戏", "285": "力", "286": "练", "287": "开心", "288": "保护", "289": "读", "290": "风险", "291": "软件", "292": "世界", "293": "开", "294": "休息", "295": "先抓", "296": "概念", "297": "事", "298": "包括", "299": "身体", "300": "缺少", "301": "配置", "302": "后", "303": "精神", "304": "不牢", "305": "逐项", "306": "写", "307": "执行", "308": "控制", "309": "团队", "310": "聊天", "311": "了解", "312": "准备", "313": "天气", "314": "带", "315": "动物", "316": "为", "317": "合适", "318": "安排", "319": "效率", "320": "等", "321": "明显", "322": "旅游", "323": "给", "324": "品质", "325": "物质", "326": "再用", "327": "注册", "328": "思考", "329": "地", "330": "计算", "331": "交通", "332": "设置", "333": "关系", "334": "步骤", "335": "税", "336": "语言", "337": "服", "338": "信息", "339": "技术", "340": "信用", "341": "生活", "342": "一下", "343": "机器人", "344": "就是", "345": "不同", "346": "根据", "347": "游泳", "348": "值得", "349": "谁", "350": "心是", "351": "影响", "352": "设计", "353": "稳定", "354": "推荐", "355": "最近", "356": "表现", "357": "多少", "358": "按", "359": "有点", "360": "熟", "361": "朋友", "362": "别人", "363": "面试", "364": "实验", "365": "预防", "366": "一般", "367": "循序渐进", "368": "社会", "369": "活动", "370": "靠", "371": "发展", "372": "怎样", "373": "保险", "374": "宇宙", "375": "非常", "376": "运营", "377": "物理", "378": "放松", "379": "最美", "380": "人物", "381": "生物", "382": "条件", "383": "化学", "384": "主题", "385": "过", "386": "?", "387": "食物", "388": "东西", "389": "尊重", "390": "最大", "391": "缓解", "392": "情绪", "393": "还", "394": "使用", "395": "协作", "396": "用户", "397": "饮食", "398": "煮熟", "399": "故事", "400": "武术", "401": "需求", "402": "钱", "403": "开发", "404": "电脑", "405": "价值", "406": "作品", "407": "结构", "408": "事物", "409": "努力", "410": "人生", "411": "提前", "412": "选", "413": "住宿", "414": "机器", "415": "文化", "416": "少", "417": "感", "418": "地方", "419": "为了", "420": "养", "421": "口碑", "422": "水", "423": "维护", "424": "新手", "425": "装备", "426": "代码", "427": "状态", "428": "请", "429": "亲", "430": "成长", "431": "舒适", "432": "深呼吸", "433": "公式", "434": "时候", "435": "医生", "436": "得到", "437": "自由", "438": "植物", "439": "新", "440": "幸福", "441": "快递", "442": "预算", "443": "容易", "444": "追求", "445": "存在", "446": "应该", "447": "计算机", "448": "不能", "449": "跑步", "450": "勇敢", "451": "腌制", "452": "做好", "453": "经验", "454": "质量", "455": "知道", "456": "声音", "457": "呢", "458": "衣服", "459": "规律", "460": "光", "461": "将", "462": "猫", "463": "很多", "464": "内容", "465": "热身", "466": "产生", "467": "舞曲", "468": "我们", "469": "细胞", "470": "视频", "471": "心情", "472": "行为", "473": "支持", "474": "希望", "475": "阅读", "476": "游戏", "477": "焦虑", "478": "决定", "479": "测试", "480": "人类", "481": "沙漠", "482": "哪里", "483": "个", "484": "找", "485": "保障", "486": "地球", "487": "材料", "488": "模型", "489": "变化", "490": "动作", "491": "洗", "492": "就医", "493": "服务", "494": "投资", "495": "接受", "496": "获得", "497": "组织", "498": "无限", "499": "理论", "500": "鸟类", "501": "鱼", "502": "休闲", "503": "偶尔", "504": "之间", "505": "炖煮", "506": "面条", "507": "美", "508": "能量", "509": "提前准备", "510": "朝代", "511": "玩笑", "512": "粒子", "513": "残疾人", "514": "永远", "515": "一起", "516": "空气", "517": "经济", "518": "呼吸", "519": "紧张", "520": "公司", "521": "滑雪", "522": "天气预报", "523": "学到", "524": "美食", "525": "明天", "526": "成为", "527": "观点", "528": "照顾", "529": "链", "530": "写作", "531": "听", "532": "一种", "533": "温暖", "534": "旅行", "535": "确定", "536": "专注", "537": "实习", "538": "简历", "539": "非洲", "540": "时段", "541": "自信", "542": "健康", "543": "每日", "544": "函数", "545": "狗", "546": "恢复", "547": "组成", "548": "告诉", "549": "检查", "550": "吧", "551": "调料", "552": "智慧", "553": "结果", "554": "恒星", "555": "由", "556": "清洁", "557": "云", "558": "强度", "559": "翻炒", "560": "注意安全", "561": "负责", "562": "总结", "563": "他", "564": "改善", "565": "太阳", "566": "太短", "567": "法", "568": "围绕", "569": "一步到位", "570": "观众", "571": "解决方案", "572": "路线", "573": "月", "574": "产品", "575": "统一", "576": "连接", "577": "孤独", "578": ".", "579": "来自", "580": "经历", "581": "例子", "582": "错题", "583": "北京", "584": "冲突", "585": "住", "586": "高兴", "587": "公开", "588": "冥想", "589": "成功", "590": "拉伸", "591": "打", "592": "养成", "593": "展开", "594": "食材", "595": "例题", "596": "真题", "597": "提分", "598": "模板", "599": "忽视", "600": "每次", "601": "名将", "602": "手机号", "603": "常问", "604": "可验证", "605": "景点", "606": "当然", "607": "它", "608": "陪", "609": "勇气", "610": "谢谢", "611": "关心", "612": "不足", "613": "迭代", "614": "比例", "615": "深度", "616": "历史", "617": "先跑通", "618": "边学边", "619": "不是", "620": "一切", "621": "不会", "622": "快", "623": "模式", "624": "爱", "625": "改变", "626": "日本", "627": "变", "628": "技能", "629": "边界", "630": "成果", "631": "数据结构", "632": "著名", "633": "操作系统", "634": "市场", "635": "健身", "636": "电影", "637": "面对", "638": "善良", "639": "信任", "640": "不好", "641": "耐心", "642": "程度", "643": "利用", "644": "现象", "645": "损伤", "646": "学科", "647": "说话", "648": "清理", "649": "充电", "650": "应用", "651": "珍惜", "652": "帮", "653": "有趣", "654": "他人", "655": "面", "656": "方案", "657": "感恩", "658": "讲", "659": "过程", "660": "申请", "661": "药", "662": "单位", "663": "算法", "664": "咨询", "665": "打击乐器", "666": "Python", "667": "这", "668": "尝试", "669": "下", "670": "篮球", "671": "美好", "672": "一次", "673": "美国", "674": "发酵", "675": "出门", "676": "多喝水", "677": "费用", "678": "金", "679": "制度", "680": "增长", "681": "战略", "682": "移动", "683": "主要", "684": "安全", "685": "自然语言", "686": "瑜伽", "687": "功能", "688": "放弃", "689": "喝", "690": "酒", "691": "法国", "692": "考试", "693": "短", "694": "方式", "695": "恐惧", "696": "平台", "697": "编程", "698": "疾病", "699": "收纳", "700": "签证", "701": "钉", "702": "任何", "703": "我会", "704": "运行", "705": "其他", "706": "足球", "707": "买", "708": "睡眠", "709": "一点", "710": "轻松", "711": "创新", "712": "一直", "713": "训练", "714": "曲子", "715": "解释", "716": "主动", "717": "倾听", "718": "专业", "719": "直接", "720": "法规", "721": "河流", "722": "宠物", "723": "杭州", "724": "引力", "725": "可视化", "726": "人工智能", "727": "事情", "728": "保暖", "729": "穿越", "730": "严重", "731": "蒸制", "732": "遇到", "733": "约", "734": "基因", "735": "报告", "736": "信念", "737": "自", "738": "平衡", "739": "发送", "740": "贷款", "741": "线", "742": "分层", "743": "每周三", "744": "五次", "745": "受伤", "746": "西亚", "747": "出现", "748": "政治", "749": "·", "750": "号", "751": "卫星", "752": "\"", "753": "流程", "754": "可能", "755": "以", "756": "兔子", "757": "着", "758": "花", "759": "力量", "760": "好看", "761": "得体", "762": "社交", "763": "认识", "764": "行", "765": "干", "766": "证明", "767": "反应", "768": "区块", "769": "计算机网络", "770": "行星", "771": "温度", "772": "意义", "773": "蜥蜴", "774": "大熊猫", "775": "南美洲", "776": "几个", "777": "羽毛球", "778": "支付", "779": "理财", "780": "只要", "781": "书", "782": "蔬菜", "783": "重庆", "784": "场所", "785": "生气", "786": "做饭", "787": "比较", "788": "动力", "789": "受害者", "790": "命运", "791": "短暂", "792": "输出", "793": "最高", "794": "炎症", "795": "当", "796": "智能", "797": "演讲", "798": "空间", "799": "教师", "800": "银行", "801": "不错", "802": "积极", "803": "感受", "804": "规划", "805": "现实", "806": "观察", "807": "决断力", "808": "网络", "809": "原因", "810": "规范", "811": "谈判", "812": "基金", "813": "技巧", "814": "天体", "815": "死", "816": "这是", "817": "他们", "818": "您", "819": "发生", "820": "季节", "821": "聪明", "822": "树", "823": "三到", "824": "已经", "825": "无聊", "826": "打动", "827": "反复", "828": "律师", "829": "没", "830": "开启", "831": "拍照", "832": "方向", "833": "怎么样", "834": "真诚", "835": "陪伴", "836": "切块", "837": "番茄", "838": "汤", "839": "煮", "840": "认知", "841": "的话", "842": "明白", "843": "忙", "844": "坚强", "845": "自我", "846": "背景", "847": "进入", "848": "协议", "849": "基本", "850": "有限", "851": "数据库", "852": "情况", "853": "发明", "854": "西安", "855": "电能", "856": "绑定", "857": "枝条", "858": "查询", "859": "端", "860": "职业", "861": "科学", "862": "起来", "863": "创造力", "864": "果实", "865": "迷茫", "866": "放", "867": "清楚", "868": "实现", "869": "艺术", "870": "责任", "871": "向", "872": "伟大", "873": "数据分析", "874": "蛋白质", "875": "标签", "876": "数学", "877": "发电", "878": "今年", "879": "工程", "880": "梦想", "881": "没关系", "882": "特有", "883": "有效", "884": "人心", "885": "吉他", "886": "宝", "887": "害怕", "888": "交", "889": "定义", "890": "相信", "891": "鸡蛋", "892": "米饭", "893": "方便", "894": "分享", "895": "探索", "896": "坚定", "897": "错误", "898": "突然", "899": "当地", "900": "股票", "901": "机构", "902": "注意力", "903": "输入", "904": "信息安全", "905": "软件工程", "906": "城市", "907": "用品", "908": "连续", "909": "仪器", "910": "因果", "911": "种子", "912": "证据", "913": "芽", "914": "英语", "915": "格斗", "916": "证件", "917": "启发", "918": "情感", "919": "无", "920": "仓鼠", "921": "抓", "922": "搬家", "923": "设计师", "924": "表演", "925": "电", "926": "升级", "927": "记账", "928": "稳定情绪", "929": "别", "930": "困难", "931": "比", "932": "优秀", "933": "独立", "934": "执行力", "935": "同理", "936": "人际关系", "937": "提供", "938": "合同", "939": "权利", "940": "文字", "941": "放到", "942": "收入", "943": "还款", "944": "Java", "945": "波长", "946": "大气", "947": "发育", "948": "鞋子", "949": "缺乏", "950": "个人", "951": "海洋", "952": "鹦鹉", "953": "大约", "954": "安全感", "955": "展示", "956": "文件", "957": "之一", "958": "擦", "959": "该", "960": "哪", "961": "商品", "962": "发", "963": "理想", "964": "来源", "965": "有无", "966": "多个", "967": "企业", "968": "转换", "969": "包", "970": "框架", "971": "起", "972": "两个", "973": "分子", "974": "DNA", "975": "药物", "976": "学生", "977": "洗掉", "978": "拨", "979": "立体", "980": "应急", "981": "广州", "982": "深圳", "983": "武汉", "984": "创作", "985": "弦乐器", "986": "生长", "987": "APP", "988": "归纳", "989": "北方", "990": "打卡", "991": "澳大利亚", "992": "刺猬", "993": "位置", "994": "尤", "995": "克里", "996": "网球", "997": "露营", "998": "备份", "999": "存储", "1000": "记得", "1001": "一些", "1002": "做事", "1003": "直播", "1004": "合作", "1005": "不变", "1006": "独特", "1007": "竞争", "1008": "自动化", "1009": "认真负责", "1010": "审计", "1011": "月亮", "1012": "集合", "1013": "泰国", "1014": "德国", "1015": "三", "1016": "微生物", "1017": "调", "1018": "数", "1019": "固体", "1020": "语法", "1021": "像", "1022": "小型", "1023": "乌龟", "1024": "皮肤", "1025": "土壤", "1026": "满足", "1027": "热", "1028": "排队", "1029": "几周", "1030": "变现", "1031": "二胡", "1032": "大方", "1033": "家人", "1034": "可乐", "1035": "鸡翅", "1036": "轻微", "1037": "生病", "1038": "坐", "1039": "眼睛", "1040": "复习", "1041": "决策", "1042": "感是", "1043": "特征", "1044": "中心", "1045": "要点", "1046": "难点", "1047": "门槛", "1048": "最有", "1049": "时间段", "1050": "正反馈", "1051": "因人而异", "1052": "调味", "1053": "成本", "1054": "资产", "1055": "股市", "1056": "公积金", "1057": "储蓄", "1058": "成型", "1059": "少量", "1060": "先看", "1061": "弄清", "1062": "：", "1063": "先列", "1064": "变形", "1065": "高频", "1066": "C++", "1067": "适时", "1068": "针对", "1069": "薄弱点", "1070": "盲目", "1071": "金鱼", "1072": "够用", "1073": "东南亚", "1074": "意大利", "1075": "疼", "1076": "不适", "1077": "暂停", "1078": "下来", "1079": "南京", "1080": "各地", "1081": "有机物", "1082": "分解", "1083": "精", "1084": "先学", "1085": "立刻", "1086": "进度", "1087": "除", "1088": "预留", "1089": "HAL", "1090": "长大", "1091": "Git", "1092": "忽略", "1093": "五天", "1094": "多样", "1095": "先选", "1096": "省心", "1097": "衣物", "1098": "表示", "1099": "科研人员", "1100": "正式", "1101": "通知", "1102": "一部", "1103": "担心", "1104": "记忆", "1105": "态度", "1106": "红烧肉", "1107": "拌匀", "1108": "失败", "1109": "一", "1110": "难过", "1111": "领导力", "1112": "自律", "1113": "规则", "1114": "每个", "1115": "媒体", "1116": "大量", "1117": "面皮", "1118": "于", "1119": "英国", "1120": "传播", "1121": "者", "1122": "暗物质", "1123": "日常", "1124": "算", "1125": "档次", "1126": "上海", "1127": "坑", "1128": "成都", "1129": "数字", "1130": "一天", "1131": "Linux", "1132": "哺乳动物", "1133": "肉", "1134": "大型", "1135": "优秀作品", "1136": "个人风格", "1137": "交付", "1138": "节拍器", "1139": "慢练", "1140": "分段", "1141": "古筝", "1142": "适当", "1143": "经理", "1144": "工程师", "1145": "时尚", "1146": "运动服", "1147": "棒球", "1148": "扫描", "1149": "更新", "1150": "屏幕", "1151": "定位", "1152": "礼物", "1153": "沮丧", "1154": "拖延", "1155": "不安", "1156": "文明", "1157": "豆腐", "1158": "制", "1159": "长", "1160": "冷", "1161": "审美", "1162": "时读", "1163": "伤心", "1164": "对方", "1165": "联系", "1166": "心态", "1167": "使命感", "1168": "悲伤", "1169": "导致", "1170": "限制", "1171": "无法", "1172": "仲裁", "1173": "打印", "1174": "从小", "1175": "不清", "1176": "权益", "1177": "内", "1178": "情节", "1179": "引", "1180": "读后", "1181": "承认", "1182": "面粉", "1183": "加盐", "1184": "透彻", "1185": "推导", "1186": "图解", "1187": "香", "1188": "火候", "1189": "新鲜度", "1190": "入味", "1191": "扎实", "1192": "易错", "1193": "答题", "1194": "更准", "1195": "对应", "1196": "拿分", "1197": "抓住", "1198": "考点", "1199": "短期内", "1200": "短时", "1201": "突击", "1202": "逐步提高", "1203": "错", "1204": "常错", "1205": "审题", "1206": "混用", "1207": "省略", "1208": "作答", "1209": "DevOps", "1210": "较", "1211": "剧情片", "1212": "探讨", "1213": "补齐", "1214": "专项", "1215": "本", "1216": "必备", "1217": "好养", "1218": "症状", "1219": "用药", "1220": "技法", "1221": "先练", "1222": "名山", "1223": "佛教", "1224": "水分", "1225": "几组", "1226": "加重", "1227": "经常", "1228": "帝王", "1229": "蜀汉", "1230": "星系", "1231": "望远镜", "1232": "液体", "1233": "第二天", "1234": "极小", "1235": "已有", "1236": "天数", "1237": "麻烦", "1238": "健康检查", "1239": "记更牢", "1240": "素材", "1241": "批改", "1242": "取舍", "1243": "完成率", "1244": "刻意", "1245": "看会", "1246": "餐饮", "1247": "门票", "1248": "留点", "1249": "促进", "1250": "边尝边", "1251": "语音", "1252": "前要", "1253": "时会", "1254": "顺畅", "1255": "论文", "1256": "知识点", "1257": "坑有", "1258": "复制粘贴", "1259": "不写", "1260": "不高", "1261": "动手", "1262": "养老", "1263": "滑行", "1264": "结构化", "1265": "专业技能", "1266": "地理", "1267": "词汇", "1268": "章节", "1269": "留", "1270": "筛选", "1271": "两三个", "1272": "准备充分", "1273": "几天", "1274": "从容", "1275": "备用", "1276": "治安", "1277": "消费水平", "1278": "两三天", "1279": "备好", "1280": "地道", "1281": "小吃", "1282": "本地", "1283": "社群", "1284": "模块", "1285": "整体规划", "1286": "自动", "1287": "想法", "1288": "活着", "1289": "对不起", "1290": "飞", "1291": "发光", "1292": "钢琴", "1293": "攀岩", "1294": "翻译", "1295": "内心", "1296": "教育", "1297": "未来", "1298": "问", "1299": "酸菜鱼", "1300": "加水", "1301": "年", "1302": "治疗", "1303": "啦", "1304": "互联网", "1305": "干净", "1306": "距离", "1307": "公正", "1308": "保证", "1309": "光明", "1310": "愤怒", "1311": "当下", "1312": "资金", "1313": "政府", "1314": "星星", "1315": "相同", "1316": "体能", "1317": "骑行", "1318": "岛国", "1319": "物体", "1320": "远离", "1321": "南方", "1322": "方面", "1323": "气体", "1324": "听力", "1325": "弓弦乐器", "1326": "向上", "1327": "清单", "1328": "笑", "1329": "变得", "1330": "什么样", "1331": "出来", "1332": "昆虫", "1333": "亚洲", "1334": "站", "1335": "清晰", "1336": "记者", "1337": "节目", "1338": "排球", "1339": "完成", "1340": "成就感", "1341": "正常", "1342": "时光", "1343": "文学", "1344": "感情", "1345": "焯", "1346": "糖醋排骨", "1347": "排骨", "1348": "鱼片", "1349": "煎", "1350": "酸辣", "1351": "土豆丝", "1352": "蛋炒饭", "1353": "一年", "1354": "酿造", "1355": "呀", "1356": "骑车", "1357": "打球", "1358": "出", "1359": "网上", "1360": "公平", "1361": "营养", "1362": "正面", "1363": "谦虚", "1364": "毅力", "1365": "冒险", "1366": "执着", "1367": "危险", "1368": "差", "1369": "绿色", "1370": "协调", "1371": "修改", "1372": "转移", "1373": "强大", "1374": "建设", "1375": "精力", "1376": "货币", "1377": "超过", "1378": "感到", "1379": "关于", "1380": "红", "1381": "适量", "1382": "放馅", "1383": "跳绳", "1384": "Web", "1385": "瀑布", "1386": "体内", "1387": "激素", "1388": "辐射", "1389": "易怒", "1390": "左右", "1391": "军事", "1392": "作用", "1393": "长官", "1394": "周朝", "1395": "电磁波", "1396": "设备", "1397": "成", "1398": "办理", "1399": "邮箱", "1400": "加号", "1401": "气候", "1402": "Obsidian", "1403": "术", "1404": "语文", "1405": "搜索引擎", "1406": "预警", "1407": "构建", "1408": "思维", "1409": "那", "1410": "类型", "1411": "蚂蚁", "1412": "珍贵", "1413": "领导", "1414": "特殊", "1415": "唱歌", "1416": "长笛", "1417": "比赛", "1418": "垃圾", "1419": "大小", "1420": "乐观", "1421": "梦", "1422": "不断", "1423": "回忆", "1424": "人民", "1425": "宫保鸡", "1426": "安慰", "1427": "太", "1428": "厉害", "1429": "拒绝", "1430": "发现", "1431": "智能化", "1432": "做出", "1433": "期待", "1434": "财务", "1435": "麻辣", "1436": "香锅", "1437": "段位", "1438": "龙猫", "1439": "异常", "1440": "爆炸", "1441": "尽快", "1442": "电子", "1443": "辅助", "1444": "订单", "1445": "印象", "1446": "滴答", "1447": "Docker", "1448": "视觉", "1449": "徒步", "1450": "写作能力", "1451": "认为", "1452": "'", "1453": "创建", "1454": "暂时", "1455": "善于", "1456": "跑", "1457": "数量", "1458": "睡", "1459": "大象", "1460": "舒服", "1461": "肌肉", "1462": "下雨", "1463": "聚餐", "1464": "换", "1465": "承诺", "1466": "代表", "1467": "啊", "1468": "继续", "1469": "同时", "1470": "这个", "1471": "五花肉", "1472": "炒蛋", "1473": "多种", "1474": "食品", "1475": "茶", "1476": "祝", "1477": "不好意思", "1478": "请问", "1479": "附近", "1480": "借钱", "1481": "开车", "1482": "刺激", "1483": "尽量", "1484": "菜", "1485": "消息", "1486": "收获", "1487": "培养", "1488": "决心", "1489": "满足感", "1490": "精进", "1491": "道理", "1492": "自然", "1493": "周围", "1494": "突出", "1495": "保留", "1496": "踏实", "1497": "认真", "1498": "用心", "1499": "操作", "1500": "财务报表", "1501": "过去", "1502": "疯", "1503": "日落", "1504": "演奏", "1505": "表面", "1506": "清蒸", "1507": "鲈鱼", "1508": "向量", "1509": "诗词", "1510": "山脉", "1511": "平行", "1512": "新加坡", "1513": "中欧", "1514": "东南欧", "1515": "加拿大", "1516": "响应", "1517": "创伤", "1518": "抗压", "1519": "战争", "1520": "学校", "1521": "科举考试", "1522": "行政", "1523": "官职", "1524": "土地", "1525": "创始人", "1526": "晚清", "1527": "名臣", "1528": "星云", "1529": "医疗", "1530": "太空", "1531": "月球", "1532": "搓洗", "1533": "根", "1534": "水蒸气", "1535": "发货", "1536": "幕布", "1537": "条例", "1538": "自行车", "1539": "拳术", "1540": "项目管理", "1541": "晋升", "1542": "受到", "1543": "所以", "1544": "模拟", "1545": "程序", "1546": "真实", "1547": "现在", "1548": "吸引", "1549": "小提琴", "1550": "萨克斯", "1551": "家庭", "1552": "钓鱼", "1553": "射击", "1554": "滑冰", "1555": "隐私", "1556": "加速", "1557": "特别", "1558": "好事", "1559": "歌", "1560": "感谢", "1561": "矛盾", "1562": "动摇", "1563": "丁", "1564": "最长", "1565": "爬山", "1566": "取", "1567": "疼痛", "1568": "验证", "1569": "作业", "1570": "冷静", "1571": "表达能力", "1572": "传递", "1573": "解决问题", "1574": "大家", "1575": "共同", "1576": "同意", "1577": "通风", "1578": "合规", "1579": "疲惫", "1580": "混合", "1581": "稳妥", "1582": "欧洲", "1583": "嗨", "1584": "心理", "1585": "学术", "1586": "分类", "1587": "税务", "1588": "Notion", "1589": "OneNote", "1590": "网页", "1591": "职业规划", "1592": "克隆", "1593": "走", "1594": "正在", "1595": "我能", "1596": "这里", "1597": "猫科动物", "1598": "北极熊", "1599": "强", "1600": "春天", "1601": "克", "1602": "进化", "1603": "标记", "1604": "寻找", "1605": "架子鼓", "1606": "绘画", "1607": "感兴趣", "1608": "夏天", "1609": "不怕", "1610": "太极", "1611": "雪车", "1612": "驱动", "1613": "买个", "1614": "有空", "1615": "释放", "1616": "失落", "1617": "果断", "1618": "看法", "1619": "一定", "1620": "互相", "1621": "包容", "1622": "约定", "1623": "水加", "1624": "鸡", "1625": "烤制", "1626": "农历", "1627": "情人节", "1628": "一日", "1629": "茶叶", "1630": "花钱", "1631": "均衡", "1632": "为主", "1633": "适应", "1634": "实力", "1635": "细心", "1636": "才华", "1637": "魄力", "1638": "建设性", "1639": "责任感", "1640": "紧迫感", "1641": "节奏感", "1642": "归属感", "1643": "幸福感", "1644": "参与感", "1645": "仪式", "1646": "宿命", "1647": "敬畏", "1648": "平常心", "1649": "勇猛", "1650": "无畏", "1651": "深", "1652": "事实", "1653": "衡量", "1654": "人工", "1655": "低", "1656": "吸收", "1657": "勤奋", "1658": "刻苦", "1659": "页面", "1660": "结论", "1661": "一步", "1662": "利率", "1663": "价格", "1664": "央行", "1665": "特定", "1666": "汽车", "1667": "金融", "1668": "作为", "1669": "日出", "1670": "生", "1671": "永恒", "1672": "劲", "1673": "式", "1674": "虚拟", "1675": "万事如意", "1676": "巴西", "1677": "区域", "1678": "北美洲", "1679": "感冒", "1680": "障碍", "1681": "涂", "1682": "造纸术", "1683": "官员", "1684": "劳动", "1685": "穿过", "1686": "志向", "1687": "原子", "1688": "探测器", "1689": "量子", "1690": "识别", "1691": "跳槽", "1692": "出行", "1693": "运输", "1694": "补办", "1695": "出入境", "1696": "象形", "1697": "口语", "1698": "调查", "1699": "绩效考核", "1700": "商业模式", "1701": "加薪", "1702": "所有", "1703": "来说", "1704": "爱好", "1705": "得", "1706": "每", "1707": "鸟", "1708": "星际", "1709": "贝斯", "1710": "秋天", "1711": "宴请", "1712": "乒乓球", "1713": "散步", "1714": "牵挂", "1715": "利弊", "1716": "绝望", "1717": "浇", "1718": "米", "1719": "排骨汤", "1720": "热水", "1721": "护肤", "1722": "共享", "1723": "认可", "1724": "嫉妒", "1725": "平等", "1726": "痛苦", "1727": "想要", "1728": "达到", "1729": "交易", "1730": "环保", "1731": "生态", "1732": "第三方", "1733": "借贷", "1734": "社保", "1735": "住房", "1736": "消费", "1737": "每月", "1738": "明月", "1739": "话", "1740": "笑话", "1741": "维生素", "1742": "加热", "1743": "重复", "1744": "体力", "1745": "热带雨林", "1746": "南亚", "1747": "一举两得", "1748": "完全", "1749": "膨胀", "1750": "量子力学", "1751": "地震", "1752": "请教", "1753": "请求", "1754": "课题", "1755": "石墨", "1756": "服务器", "1757": "黑客", "1758": "竞品", "1759": "职业倦怠", "1760": "装置", "1761": "完美", "1762": "销售", "1763": "水中", "1764": "柔软", "1765": "食肉动物", "1766": "地面", "1767": "简单", "1768": "猎豹", "1769": "小时", "1770": "三百", "1771": "公里", "1772": "几分钟", "1773": "冬天", "1774": "舞蹈", "1775": "射箭", "1776": "越野", "1777": "检查一下", "1778": "音量", "1779": "关闭", "1780": "电池", "1781": "密码", "1782": "拍", "1783": "公园", "1784": "看看", "1785": "又", "1786": "创业", "1787": "诚实", "1788": "意外", "1789": "新闻", "1790": "意思", "1791": "盐", "1792": "加水煮", "1793": "哲学", "1794": "红包", "1795": "豆浆", "1796": "帮到", "1797": "带伞", "1798": "哦", "1799": "女", "1800": "退缩", "1801": "累", "1802": "饿", "1803": "出去", "1804": "洗衣服", "1805": "种花", "1806": "很大", "1807": "收", "1808": "体检", "1809": "疫苗", "1810": "紫外线", "1811": "血液", "1812": "唱", "1813": "热情", "1814": "担当", "1815": "有远见", "1816": "有恒心", "1817": "想象力", "1818": "判断力", "1819": "适应力", "1820": "韧性", "1821": "弹性", "1822": "变通", "1823": "人际", "1824": "拼搏", "1825": "进取", "1826": "慈悲心", "1827": "清净", "1828": "欢喜", "1829": "分别", "1830": "初心", "1831": "失去", "1832": "供给", "1833": "降低", "1834": "数字化", "1835": "代替", "1836": "排放", "1837": "国际", "1838": "双方", "1839": "提出", "1840": "鼓励", "1841": "取消", "1842": "了不起", "1843": "稳重", "1844": "谱", "1845": "胆识", "1846": "影响力", "1847": "表达力", "1848": "还好", "1849": "贷", "1850": "付款", "1851": "辛苦", "1852": "彩虹", "1853": "感动", "1854": "打开", "1855": "三次", "1856": "粉丝", "1857": "表情", "1858": "参与", "1859": "节", "1860": "平安", "1861": "岁", "1862": "纤维", "1863": "对折", "1864": "捏", "1865": "皮包", "1866": "制成", "1867": "食材放", "1868": "遗传", "1869": "第二", "1870": "内陆国", "1871": "关节", "1872": "聚焦", "1873": "停训", "1874": "冷水", "1875": "时期", "1876": "丝绸之路", "1877": "石窟", "1878": "修建", "1879": "江南", "1880": "大名", "1881": "楼", "1882": "清朝", "1883": "商朝", "1884": "作者", "1885": "词人", "1886": "首都", "1887": "三维", "1888": "外层", "1889": "物种", "1890": "伤口", "1891": "器官", "1892": "方程", "1893": "环", "1894": "育种", "1895": "孩子", "1896": "法医", "1897": "值", "1898": "清洗", "1899": "白醋", "1900": "球", "1901": "湿度", "1902": "欲", "1903": "矩阵", "1904": "角", "1905": "排列", "1906": "保险公司", "1907": "学位", "1908": "认证", "1909": "是不是", "1910": "Trello", "1911": "分析师", "1912": "转化", "1913": "部署", "1914": "品牌", "1915": "壮观", "1916": "人力资源", "1917": "互动", "1918": "策划", "1919": "顾问", "1920": "家电", "1921": "作文", "1922": "公众", "1923": "转岗", "1924": "职场", "1925": "复制", "1926": "愿望", "1927": "生命", "1928": "会飞", "1929": "只有", "1930": "达", "1931": "滑雪服", "1932": "冰球", "1933": "试试", "1934": "收到", "1935": "瞬间", "1936": "无助", "1937": "创造", "1938": "早上好", "1939": "水果", "1940": "好好", "1941": "满满", "1942": "忘记", "1943": "没什么", "1944": "在家", "1945": "牛奶", "1946": "回来", "1947": "赞美", "1948": "批评", "1949": "漂亮", "1950": "温柔", "1951": "魅力", "1952": "有时", "1953": "下降", "1954": "化", "1955": "国内", "1956": "法院", "1957": "总", "1958": "分配", "1959": "本金", "1960": "非", "1961": "支出", "1962": "恭喜", "1963": "依赖", "1964": "天空", "1965": "已", "1966": "导数", "1967": "湖泊", "1968": "太平洋", "1969": "作息", "1970": "调节", "1971": "坏", "1972": "矮", "1973": "弦", "1974": "分散", "1975": "挂号", "1976": "量", "1977": "枪", "1978": "店", "1979": "租房", "1980": "交管", "1981": "（", "1982": "）", "1983": "前端", "1984": "前端开发", "1985": "加密", "1986": "强化", "1987": "市场营销", "1988": "养护", "1989": "一只", "1990": "出生", "1991": "真的", "1992": "娱乐", "1993": "爬行动物", "1994": "两栖动物", "1995": "独居", "1996": "捕食", "1997": "热带", "1998": "蜜蜂", "1999": "高原", "2000": "储存", "2001": "狼", "2002": "老虎", "2003": "优雅", "2004": "森林", "2005": "冬眠", "2006": "灭绝", "2007": "一样", "2008": "耳朵", "2009": "分布", "2010": "品种", "2011": "蹭", "2012": "是因为", "2013": "跳舞", "2014": "摄影", "2015": "正装", "2016": "聚会", "2017": "女性", "2018": "手工", "2019": "户外", "2020": "击剑", "2021": "举重", "2022": "雪橇", "2023": "冬季两项", "2024": "慢", "2025": "修复", "2026": "指纹", "2027": "查看", "2028": "幸运", "2029": "表扬", "2030": "新气象", "2031": "照片", "2032": "很棒", "2033": "优点", "2034": "以身作则", "2035": "传承", "2036": "画", "2037": "程序员", "2038": "金黄", "2039": "豆瓣酱", "2040": "花生", "2041": "木耳", "2042": "切片", "2043": "土豆", "2044": "南瓜", "2045": "新年", "2046": "十五", "2047": "结束", "2048": "乐器", "2049": "香料", "2050": "绿茶", "2051": "红楼梦", "2052": "小王子", "2053": "三体", "2054": "围城", "2055": "哭", "2056": "心里", "2057": "付出", "2058": "知己", "2059": "好玩", "2060": "或者", "2061": "早起", "2062": "房间", "2063": "治愈", "2064": "满意", "2065": "评论", "2066": "搭配", "2067": "便宜", "2068": "骑", "2069": "可爱", "2070": "演出", "2071": "加油", "2072": "血压", "2073": "晚上", "2074": "半小时", "2075": "见", "2076": "按时", "2077": "挑战", "2078": "骄傲", "2079": "寂寞", "2080": "崇拜", "2081": "气质", "2082": "本事", "2083": "潜力", "2084": "前途", "2085": "前进", "2086": "洞察力", "2087": "恢复力", "2088": "灵活性", "2089": "团队精神", "2090": "工匠", "2091": "创造性", "2092": "积极性", "2093": "危机感", "2094": "重视", "2095": "同情心", "2096": "怜悯", "2097": "包容心", "2098": "宽容", "2099": "忍耐", "2100": "菩提", "2101": "动心", "2102": "挂碍", "2103": "解脱", "2104": "恒久", "2105": "退心", "2106": "不屈", "2107": "不挠", "2108": "妥协", "2109": "屈服", "2110": "畏惧", "2111": "不忘心", "2112": "不忘本", "2113": "正", "2114": "某事", "2115": "相处", "2116": "重点", "2117": "变革", "2118": "向前", "2119": "差异化", "2120": "改造", "2121": "二氧化碳", "2122": "肯定", "2123": "信心", "2124": "价值观", "2125": "全面", "2126": "最小", "2127": "发行", "2128": "指数", "2129": "跟踪", "2130": "以上", "2131": "所得税", "2132": "社会保险", "2133": "支付宝", "2134": "失望", "2135": "恨", "2136": "道", "2137": "百年孤独", "2138": "肩膀", "2139": "制造", "2140": "偶像", "2141": "流量", "2142": "重逢", "2143": "新年好", "2144": "老师", "2145": "脂肪", "2146": "蓝莓", "2147": "过量", "2148": "擀", "2149": "馅", "2150": "心理学", "2151": "温差", "2152": "群岛", "2153": "海", "2154": "五岳", "2155": "大国", "2156": "山国", "2157": "西欧", "2158": "中亚", "2159": "婆娘", "2160": "打扰", "2161": "失眠", "2162": "旋转", "2163": "光线", "2164": "高温", "2165": "过多", "2166": "自身", "2167": "低头", "2168": "增强", "2169": "每周", "2170": "十到", "2171": "二十分钟", "2172": "秦朝", "2173": "古塔", "2174": "唐朝", "2175": "明朝", "2176": "奠基者", "2177": "丞相", "2178": "魏国", "2179": "吴国", "2180": "文学家", "2181": "星体", "2182": "网", "2183": "火山", "2184": "风", "2185": "风力", "2186": "分离", "2187": "混合物", "2188": "戴", "2189": "抗体", "2190": "免疫系统", "2191": "部分", "2192": "频率", "2193": "原理", "2194": "土星", "2195": "星团", "2196": "反射", "2197": "变星", "2198": "绕", "2199": "保存", "2200": "犯罪", "2201": "振动", "2202": "有害", "2203": "浇水", "2204": "专用", "2205": "预约", "2206": "覆盖", "2207": "小苏打", "2208": "存放", "2209": "才", "2210": "形状", "2211": "相等", "2212": "溶液", "2213": "溶解", "2214": "发声", "2215": "乐曲", "2216": "木管乐器", "2217": "铜管乐器", "2218": "传粉", "2219": "胚乳", "2220": "个人信息", "2221": "备注", "2222": "车管所", "2223": "管理局", "2224": "颜色", "2225": "凝结", "2226": "下单", "2227": "SQL", "2228": "环境保护", "2229": "争议", "2230": "管理条例", "2231": "网络安全", "2232": "农业", "2233": "商业", "2234": "措施", "2235": "两人", "2236": "拳", "2237": "容器", "2238": "集成", "2239": "HTTP", "2240": "野餐", "2241": "放风筝", "2242": "赏花", "2243": "汇报", "2244": "营销", "2245": "地区", "2246": "睡觉", "2247": "谈论", "2248": "商务", "2249": "速度", "2250": "办公", "2251": "太好了", "2252": "聊聊", "2253": "没事", "2254": "纠结", "2255": "跟着", "2256": "坚持下去", "2257": "和平", "2258": "风景", "2259": "炒", "2260": "肉末", "2261": "鸭", "2262": "慢炖", "2263": "牛肉", "2264": "玉米", "2265": "气功", "2266": "布", "2267": "今天天气", "2268": "叫", "2269": "嗯", "2270": "方", "2271": "存钱", "2272": "离", "2273": "客户", "2274": "胜利", "2275": "幽默", "2276": "内在", "2277": "抗", "2278": "推动", "2279": "真理", "2280": "标准", "2281": "目的", "2282": "理由", "2283": "退步", "2284": "逐渐", "2285": "调解", "2286": "赔偿", "2287": "消费者", "2288": "利息", "2289": "收益", "2290": "征信", "2291": "负债", "2292": "增值税", "2293": "财产", "2294": "有人", "2295": "总是", "2296": "等待", "2297": "喜悦", "2298": "明星", "2299": "种草", "2300": "图片", "2301": "夹", "2302": "氪", "2303": "carry", "2304": "印度洋", "2305": "地中海", "2306": "最多", "2307": "低温", "2308": "获取", "2309": "冲洗", "2310": "第一个", "2311": "所", "2312": "周期性", "2313": "基本粒子", "2314": "零", "2315": "太阳能", "2316": "杀灭", "2317": "细菌", "2318": "病毒", "2319": "燃烧", "2320": "极光", "2321": "对称", "2322": "微", "2323": "热量", "2324": "提取", "2325": "节能", "2326": "策略", "2327": "热力学", "2328": "吹奏乐器", "2329": "花序", "2330": "义务", "2331": "一举", "2332": "不怎么", "2333": "散射", "2334": "判决", "2335": "两队", "2336": "冰上", "2337": "赛车", "2338": "通信", "2339": "古文", "2340": "名字", "2341": "超级", "2342": "意志", "2343": "各种", "2344": "也许", "2345": "腿", "2346": "繁殖", "2347": "拥有", "2348": "节肢动物", "2349": "软体动物", "2350": "棘皮动物", "2351": "体温", "2352": "群居动物", "2353": "猛禽", "2354": "海边", "2355": "珊瑚礁", "2356": "蝴蝶", "2357": "虾", "2358": "透明", "2359": "金丝猴", "2360": "珍稀", "2361": "企鹅", "2362": "南极", "2363": "啮齿动物", "2364": "狮子", "2365": "后代", "2366": "猪", "2367": "白色", "2368": "寿命", "2369": "长颈鹿", "2370": "记忆力", "2371": "交流", "2372": "亲近", "2373": "重物", "2374": "每秒", "2375": "视频剪辑", "2376": "盗梦", "2377": "才能", "2378": "千与千寻", "2379": "疯狂", "2380": "肖申克", "2381": "救赎", "2382": "兴趣", "2383": "便于", "2384": "音乐会", "2385": "节日", "2386": "浪漫", "2387": "毕业", "2388": "高尔夫", "2389": "登山", "2390": "骑马", "2391": "摔跤", "2392": "跳台", "2393": "重启", "2394": "还原", "2395": "充电器", "2396": "后台", "2397": "缓存", "2398": "同步", "2399": "外卖", "2400": "购物", "2401": "过得", "2402": "慢慢来", "2403": "消极", "2404": "平静", "2405": "身体健康", "2406": "期望", "2407": "惊喜", "2408": "离开", "2409": "性格", "2410": "挺", "2411": "复杂", "2412": "海鲜", "2413": "友谊", "2414": "鸡肉", "2415": "蒸", "2416": "炸至", "2417": "辣椒", "2418": "蒜蓉", "2419": "黄瓜", "2420": "醋", "2421": "酱油", "2422": "皮蛋", "2423": "加汤", "2424": "焖", "2425": "粥", "2426": "红薯", "2427": "萝卜", "2428": "冬瓜", "2429": "五月", "2430": "粽子", "2431": "元宵节", "2432": "十二月", "2433": "西方", "2434": "下雪", "2435": "符号", "2436": "中医", "2437": "针灸", "2438": "吉祥", "2439": "早餐", "2440": "花朵", "2441": "茶具", "2442": "蒸馏", "2443": "葡萄", "2444": "讨厌", "2445": "走走", "2446": "几点", "2447": "帮忙", "2448": "困", "2449": "记住", "2450": "天", "2451": "手表", "2452": "周末", "2453": "迟到", "2454": "综艺", "2455": "动漫", "2456": "播客", "2457": "退货", "2458": "好评", "2459": "朋友圈", "2460": "心意", "2461": "反思", "2462": "按摩", "2463": "泡脚", "2464": "头发", "2465": "很快", "2466": "动物园", "2467": "博物馆", "2468": "美术馆", "2469": "图书馆", "2470": "花园", "2471": "宝贝", "2472": "刮痧", "2473": "超声波", "2474": "心脏", "2475": "消化", "2476": "血糖", "2477": "面包", "2478": "预习", "2479": "背", "2480": "邮件", "2481": "送", "2482": "身边", "2483": "无力感", "2484": "可控", "2485": "找回", "2486": "夸奖", "2487": "重", "2488": "奋斗", "2489": "上进心", "2490": "好奇心", "2491": "有创造力", "2492": "应对", "2493": "奉献精神", "2494": "敬业精神", "2495": "拼搏精神", "2496": "进取精神", "2497": "主动性", "2498": "有分寸", "2499": "关爱", "2500": "觉悟", "2501": "忘", "2502": "做人", "2503": "总会", "2504": "身心", "2505": "对待", "2506": "成见", "2507": "误会", "2508": "开悟", "2509": "人格", "2510": "因素", "2511": "衰退", "2512": "繁荣", "2513": "复苏", "2514": "增加", "2515": "性质", "2516": "某个", "2517": "全球", "2518": "循环", "2519": "碳", "2520": "侧", "2521": "双循环", "2522": "和谐", "2523": "纠纷", "2524": "投诉", "2525": "担保", "2526": "违约", "2527": "补偿", "2528": "金额", "2529": "前", "2530": "援助", "2531": "正义", "2532": "出色", "2533": "感召力", "2534": "亲和力", "2535": "说服力", "2536": "感染力", "2537": "理解力", "2538": "创新力", "2539": "编辑", "2540": "搜索", "2541": "下载", "2542": "收纳盒", "2543": "坐姿", "2544": "支撑", "2545": "收回", "2546": "债券", "2547": "投放", "2548": "减", "2549": "库存", "2550": "在线", "2551": "微信", "2552": "抱抱", "2553": "委屈", "2554": "这样", "2555": "别太", "2556": "家", "2557": "佩服", "2558": "心疼", "2559": "人们", "2560": "想象", "2561": "阳光", "2562": "四季", "2563": "着急", "2564": "心想事成", "2565": "制作", "2566": "人才", "2567": "元", "2568": "颜值", "2569": "遗憾", "2570": "安康", "2571": "喜乐", "2572": "吉祥如意", "2573": "财源", "2574": "广进", "2575": "西瓜", "2576": "碳水化合物", "2577": "膳食", "2578": "咖啡", "2579": "擀开", "2580": "磨碎", "2581": "晾干", "2582": "水泡", "2583": "电磁学", "2584": "热学", "2585": "光学", "2586": "力学", "2587": "愿景", "2588": "指环王", "2589": "作家", "2590": "穿衣", "2591": "兼顾", "2592": "室内外", "2593": "争取", "2594": "定期检查", "2595": "峡谷", "2596": "最南端", "2597": "大洋", "2598": "高加索", "2599": "山", "2600": "道教", "2601": "大岛", "2602": "东亚", "2603": "以色列", "2604": "北非", "2605": "西非", "2606": "北欧", "2607": "大洋洲", "2608": "下午", "2609": "免疫力", "2610": "发烧", "2611": "过敏", "2612": "久坐", "2613": "含量", "2614": "刷牙", "2615": "海拔", "2616": "中暑", "2617": "甲状腺", "2618": "撕裂", "2619": "骨折", "2620": "扭伤", "2621": "烫伤", "2622": "良好", "2623": "推理", "2624": "判断", "2625": "气温", "2626": "小事", "2627": "十分钟", "2628": "太久", "2629": "少看", "2630": "事件", "2631": "印刷术", "2632": "火药", "2633": "指南针", "2634": "蔡伦", "2635": "贸易", "2636": "隋朝", "2637": "功名", "2638": "赋税", "2639": "宋朝", "2640": "军队", "2641": "夏朝", "2642": "汉朝", "2643": "分裂", "2644": "上古", "2645": "贤明", "2646": "儒家", "2647": "秦始皇", "2648": "华佗", "2649": "著名诗人", "2650": "台湾", "2651": "民族英雄", "2652": "中华人民共和国", "2653": "遗址", "2654": "柠檬", "2655": "受", "2656": "远大", "2657": "直径约", "2658": "极强", "2659": "中子星", "2660": "观测", "2661": "磁场", "2662": "X射线", "2663": "化学键", "2664": "化合物", "2665": "合成", "2666": "引起", "2667": "降水", "2668": "含有", "2669": "替代", "2670": "轮椅", "2671": "包扎", "2672": "酒精", "2673": "参数", "2674": "太阳系", "2675": "火星", "2676": "木星", "2677": "爆发", "2678": "流星", "2679": "柯伊伯", "2680": "星系团", "2681": "弱", "2682": "生产", "2683": "胚胎", "2684": "类似", "2685": "精准", "2686": "生育", "2687": "冷冻", "2688": "毒物", "2689": "医疗事故", "2690": "残留", "2691": "指标", "2692": "率", "2693": "样本", "2694": "现场", "2695": "投", "2696": "划船", "2697": "板", "2698": "换位", "2699": "渍", "2700": "保持清洁", "2701": "读过", "2702": "尽", "2703": "间", "2704": "组合", "2705": "积分", "2706": "直角", "2707": "边", "2708": "图形", "2709": "无机化学", "2710": "有机化学", "2711": "蒸发", "2712": "凝华", "2713": "伴奏", "2714": "人唱", "2715": "拍子", "2716": "德", "2717": "叶片", "2718": "开花", "2719": "药剂", "2720": "树木", "2721": "果皮", "2722": "GitHub", "2723": "里点", "2724": "物流", "2725": "发票", "2726": "拿", "2727": "慈善", "2728": "转", "2729": "全部", "2730": "说得对", "2731": "是非", "2732": "课", "2733": "关键词", "2734": "折射", "2735": "有风", "2736": "有雾", "2737": "挡住", "2738": "未成年人", "2739": "强制", "2740": "保全", "2741": "护理", "2742": "经费", "2743": "击球", "2744": "投掷", "2745": "太极拳", "2746": "神经网络", "2747": "物", "2748": "边缘", "2749": "传输", "2750": "IP", "2751": "天气晴朗", "2752": "看不到", "2753": "黄了", "2754": "向日葵", "2755": "架", "2756": "开题", "2757": "搭", "2758": "不朽", "2759": "形式", "2760": "另", "2761": "包含", "2762": "！", "2763": "完美无缺", "2764": "随", "2765": "迁徙", "2766": "古老", "2767": "牛", "2768": "手指", "2769": "用来", "2770": "感知", "2771": "相对", "2772": "几年", "2773": "派", "2774": "冲浪", "2775": "WiFi", "2776": "蓝牙", "2777": "图案", "2778": "壳", "2779": "电源", "2780": "窗", "2781": "一件", "2782": "回家", "2783": "听听", "2784": "振作起来", "2785": "静下心来", "2786": "犹豫", "2787": "丢人", "2788": "汁", "2789": "红油", "2790": "羊肉汤", "2791": "炒饭", "2792": "砂锅", "2793": "寒冷", "2794": "吃饭", "2795": "回答", "2796": "帮帮我", "2797": "随时", "2798": "养鱼", "2799": "遛狗", "2800": "请客", "2801": "走路", "2802": "牙齿", "2803": "美丽", "2804": "棒", "2805": "别怕", "2806": "有则改之", "2807": "无则加勉", "2808": "敬业", "2809": "途径", "2810": "修养", "2811": "偏见", "2812": "深刻理解", "2813": "修炼", "2814": "购买", "2815": "倒退", "2816": "开放", "2817": "改革", "2818": "共生", "2819": "成绩", "2820": "预期", "2821": "法治", "2822": "后悔", "2823": "常用", "2824": "物价", "2825": "进出口", "2826": "买房", "2827": "经营", "2828": "我爱你", "2829": "预测", "2830": "顺利", "2831": "歌剧", "2832": "离别", "2833": "橘子", "2834": "维持", "2835": "坚果", "2836": "能源", "2837": "搓", "2838": "油", "2839": "赤道", "2840": "大西洋", "2841": "第三", "2842": "干旱", "2843": "整个", "2844": "冻伤", "2845": "养猫", "2846": "好处", "2847": "极大", "2848": "丰富", "2849": "中子", "2850": "发射", "2851": "光合作用", "2852": "台风", "2853": "测量", "2854": "晶体", "2855": "超新星", "2856": "超", "2857": "诊断", "2858": "切菜", "2859": "日志", "2860": "骗子", "2861": "差异", "2862": "维纳斯", "2863": "打篮球", "2864": "应用程序", "2865": "敏捷", "2866": "全栈", "2867": "永生", "2868": "撒谎", "2869": "这么", "2870": "死亡", "2871": "试图", "2872": "尺码", "2873": "UNIX", "2874": "脊椎动物", "2875": "夜行", "2876": "夜间", "2877": "群体", "2878": "迁徙的鸟", "2879": "攀爬", "2880": "海豚", "2881": "鳍", "2882": "足类", "2883": "尾巴", "2884": "群居", "2885": "蜘蛛", "2886": "甲壳动物", "2887": "蜗牛", "2888": "珍稀动物", "2889": "东北虎", "2890": "藏羚羊", "2891": "青藏高原", "2892": "鳞片", "2893": "北极", "2894": "袋鼠", "2895": "考拉", "2896": "缓慢", "2897": "刺", "2898": "雪", "2899": "犬科", "2900": "最快", "2901": "马", "2902": "驴", "2903": "飞行", "2904": "竹子", "2905": "伪装", "2906": "多长", "2907": "怀孕", "2908": "野外", "2909": "几乎", "2910": "叶", "2911": "二十", "2912": "看起来", "2913": "擅长", "2914": "脖子", "2915": "鼻子", "2916": "散热", "2917": "高处", "2918": "激光", "2919": "兴奋", "2920": "胃", "2921": "尿", "2922": "水面", "2923": "自卫", "2924": "留下", "2925": "搬", "2926": "讲故事", "2927": "文案", "2928": "口", "2929": "阿甘正传", "2930": "霸王别姬", "2931": "泰坦尼克号", "2932": "楚门", "2933": "兄弟", "2934": "上班", "2935": "深色", "2936": "特色", "2937": "户外活动", "2938": "展览", "2939": "同事", "2940": "话剧", "2941": "脏", "2942": "茶艺", "2943": "拳击", "2944": "跆拳道", "2945": "空手道", "2946": "相扑", "2947": "棋类", "2948": "冰壶", "2949": "花样滑冰", "2950": "短道", "2951": "速滑", "2952": "钢架", "2953": "自由式", "2954": "单板", "2955": "有没有", "2956": "最新", "2957": "分区", "2958": "杀毒", "2959": "数据线", "2960": "满", "2961": "插入", "2962": "耳机", "2963": "补", "2964": "悬浮", "2965": "导入", "2966": "亮度", "2967": "闹钟", "2968": "日历", "2969": "地图", "2970": "打车", "2971": "路", "2972": "好吃", "2973": "美景", "2974": "好书", "2975": "充足", "2976": "发工资", "2977": "新发型", "2978": "形象", "2979": "一场", "2980": "想念", "2981": "学会", "2982": "对象", "2983": "超出", "2984": "实用", "2985": "遗产", "2986": "触动", "2987": "人性", "2988": "守信", "2989": "祝福", "2990": "还有", "2991": "糖醋", "2992": "炒香加", "2993": "热油", "2994": "酸菜", "2995": "三鲜", "2996": "茄子", "2997": "加醋", "2998": "蘸", "2999": "啤酒", "3000": "拉面", "3001": "鸡丝", "3002": "虾仁", "3003": "炒菜", "3004": "山药", "3005": "春节", "3006": "中秋节", "3007": "赏月", "3008": "月饼", "3009": "端午节", "3010": "九", "3011": "除夕", "3012": "圣诞节", "3013": "万圣节", "3014": "感恩节", "3015": "教师节", "3016": "劳动节", "3017": "青年节", "3018": "儿童节", "3019": "建军节", "3020": "愚人节", "3021": "平安夜", "3022": "昼夜", "3023": "清明", "3024": "谷物", "3025": "露水", "3026": "有霜", "3027": "推拿", "3028": "服饰", "3029": "面食", "3030": "包子", "3031": "主食", "3032": "特产", "3033": "加入", "3034": "喝茶", "3035": "品茶", "3036": "聊", "3037": "下次", "3038": "哈哈", "3039": "爱情", "3040": "金钱", "3041": "不困", "3042": "慢慢", "3043": "消失", "3044": "假期", "3045": "锻炼身体", "3046": "弹琴", "3047": "修身养性", "3048": "纪录片", "3049": "涨", "3050": "网购", "3051": "发微博", "3052": "谨慎", "3053": "开支", "3054": "有氧", "3055": "养生", "3056": "享受", "3057": "泡澡", "3058": "美容", "3059": "指甲", "3060": "很漂亮", "3061": "省钱", "3062": "坐船", "3063": "安静", "3064": "热闹", "3065": "精彩", "3066": "理疗", "3067": "艾灸", "3068": "红外线", "3069": "X光", "3070": "CT", "3071": "心电图", "3072": "脑电图", "3073": "肌电图", "3074": "肝脏", "3075": "骨密度", "3076": "肿瘤", "3077": "筛查", "3078": "中午", "3079": "车", "3080": "适度", "3081": "提交", "3082": "理清", "3083": "走出", "3084": "无力", "3085": "勉强", "3086": "羡慕", "3087": "仰慕", "3088": "美德", "3089": "创意", "3090": "格局", "3091": "源泉", "3092": "贡献", "3093": "看见", "3094": "放下", "3095": "忠诚", "3096": "使命", "3097": "前行", "3098": "自强", "3099": "千尺", "3100": "不公", "3101": "界限", "3102": "约束", "3103": "人道", "3104": "觉察", "3105": "前提", "3106": "上升", "3107": "扩大", "3108": "打破", "3109": "规模", "3110": "领域", "3111": "国际化", "3112": "生态系统", "3113": "城镇化", "3114": "中华民族", "3115": "回应", "3116": "讨论", "3117": "申诉", "3118": "意见", "3119": "授权", "3120": "具体", "3121": "应", "3122": "赔偿损失", "3123": "救济", "3124": "救助", "3125": "帮扶", "3126": "抚慰", "3127": "慰问", "3128": "关怀", "3129": "久", "3130": "空调", "3131": "接收", "3132": "合理安排", "3133": "干扰", "3134": "先说", "3135": "陈述", "3136": "奖励", "3137": "生产总值", "3138": "物价指数", "3139": "抵押", "3140": "比率", "3141": "必须", "3142": "便利", "3143": "股价", "3144": "净资产", "3145": "股票价格", "3146": "波动", "3147": "图表", "3148": "被动", "3149": "交易所", "3150": "上市", "3151": "投资者", "3152": "并购", "3153": "合并", "3154": "重新", "3155": "证券", "3156": "表", "3157": "现金", "3158": "流出", "3159": "利润", "3160": "逾期", "3161": "期限", "3162": "二", "3163": "出售", "3164": "升职", "3165": "一切顺利", "3166": "拥抱", "3167": "原谅", "3168": "一部分", "3169": "在乎", "3170": "假设", "3171": "羞愧", "3172": "子", "3173": "有些", "3174": "思念", "3175": "春风", "3176": "细雨", "3177": "白云", "3178": "蓝", "3179": "绿水", "3180": "遇见", "3181": "真", "3182": "无穷", "3183": "安心", "3184": "充实", "3185": "成就", "3186": "激情", "3187": "在意", "3188": "几次", "3189": "闭眼", "3190": "风格", "3191": "即兴", "3192": "管弦乐队", "3193": "拔草", "3194": "时长", "3195": "音频", "3196": "网红", "3197": "领袖", "3198": "段子", "3199": "跟风", "3200": "洗白", "3201": "恭喜发财", "3202": "万事", "3203": "顺意", "3204": "前程似锦", "3205": "步步高升", "3206": "蒸蒸日上", "3207": "越来越", "3208": "幸福美满", "3209": "高升", "3210": "发达", "3211": "富贵", "3212": "福星高照", "3213": "鸿运", "3214": "当头", "3215": "精神抖擞", "3216": "青云直上", "3217": "炒香", "3218": "蔬菜水果", "3219": "提神", "3220": "菠菜", "3221": "苦瓜", "3222": "香蕉", "3223": "太多", "3224": "收口", "3225": "圆", "3226": "淀粉", "3227": "煎制", "3228": "包裹", "3229": "打碎", "3230": "串", "3231": "烧烤", "3232": "白菜", "3233": "霉菌", "3234": "芝麻", "3235": "大豆", "3236": "不等式", "3237": "近现代史", "3238": "世界史", "3239": "鉴赏", "3240": "古代史", "3241": "文言文", "3242": "社会学", "3243": "西游记", "3244": "三国演义", "3245": "水浒传", "3246": "1984", "3247": "描述", "3248": "是否", "3249": "启动", "3250": "月度", "3251": "岛屿", "3252": "最深", "3253": "盆地", "3254": "刚果", "3255": "安第斯山脉", "3256": "红海", "3257": "黄河", "3258": "欧亚", "3259": "岛", "3260": "夏威夷", "3261": "印度尼西亚", "3262": "希腊", "3263": "缅甸", "3264": "东非", "3265": "波兰", "3266": "东欧", "3267": "哈尔", "3268": "见到", "3269": "欢迎", "3270": "咳嗽", "3271": "头疼", "3272": "腰疼", "3273": "难以", "3274": "抑郁", "3275": "智力", "3276": "口腔", "3277": "牙龈", "3278": "外", "3279": "恶心", "3280": "缺", "3281": "分泌", "3282": "肌", "3283": "疏松", "3284": "韧带", "3285": "断裂", "3286": "肌腱", "3287": "烧伤", "3288": "咬伤", "3289": "蜇伤", "3290": "伤", "3291": "伤害", "3292": "适应环境", "3293": "睡前", "3294": "晒太阳", "3295": "漱口", "3296": "过敏原", "3297": "冷敷", "3298": "抬高", "3299": "膝盖", "3300": "眨眼", "3301": "湿润", "3302": "两次", "3303": "晒", "3304": "三十分钟", "3305": "游", "3306": "十五分钟", "3307": "防晒", "3308": "两分钟", "3309": "时代", "3310": "托马斯", "3311": "长城", "3312": "故宫", "3313": "秦始皇陵", "3314": "敦煌", "3315": "运河", "3316": "水利工程", "3317": "黄鹤楼", "3318": "祭", "3319": "荣誉", "3320": "部长级", "3321": "监察", "3322": "三国", "3323": "汉族", "3324": "曾国藩", "3325": "李鸿章", "3326": "孙中山", "3327": "三个", "3328": "名相", "3329": "道家", "3330": "汉武帝", "3331": "张衡", "3332": "地动仪", "3333": "医学家", "3334": "诸葛亮", "3335": "曹操", "3336": "关羽", "3337": "苏轼", "3338": "辛弃疾", "3339": "李清照", "3340": "岳飞", "3341": "抗金", "3342": "文天祥", "3343": "抗元", "3344": "郑和", "3345": "七下", "3346": "西洋", "3347": "航海家", "3348": "戚继光", "3349": "抗倭", "3350": "林则徐", "3351": "虎门销烟", "3352": "西域", "3353": "分", "3354": "贫穷", "3355": "办法", "3356": "彼此", "3357": "致密", "3358": "明亮", "3359": "银河系", "3360": "时空", "3361": "原子核", "3362": "夸克", "3363": "等离子体", "3364": "希", "3365": "格斯", "3366": "赋予", "3367": "全息", "3368": "金属", "3369": "氢键", "3370": "生物体", "3371": "大分子", "3372": "染色体", "3373": "体", "3374": "细胞分裂", "3375": "序列", "3376": "恐龙", "3377": "结冰", "3378": "板块", "3379": "地壳", "3380": "海底", "3381": "大风", "3382": "流体", "3383": "变成", "3384": "有害物质", "3385": "噪声", "3386": "光污染", "3387": "电磁", "3388": "风能", "3389": "水能", "3390": "核能", "3391": "成像", "3392": "假体", "3393": "口罩", "3394": "急救", "3395": "消毒", "3396": "消除", "3397": "处方", "3398": "成分", "3399": "免疫", "3400": "氧气", "3401": "外星", "3402": "系", "3403": "外行星", "3404": "星", "3405": "集团", "3406": "离散", "3407": "周期", "3408": "发出", "3409": "碎片", "3410": "流星雨", "3411": "海王星", "3412": "巨大", "3413": "假想", "3414": "胚", "3415": "痕迹", "3416": "溺水", "3417": "工伤", "3418": "食品安全", "3419": "空气质量", "3420": "农药", "3421": "矿物质", "3422": "用于", "3423": "量化", "3424": "数值", "3425": "分类整理", "3426": "关", "3427": "光照", "3428": "冲泡", "3429": "简洁明了", "3430": "提高效率", "3431": "按压", "3432": "心肺", "3433": "真诚相待", "3434": "下属", "3435": "手洗", "3436": "拧", "3437": "切", "3438": "西红柿", "3439": "擦洗", "3440": "多用", "3441": "葡萄园", "3442": "柏拉图", "3443": "俄罗斯", "3444": "不知", "3445": "处", "3446": "桂花", "3447": "千里", "3448": "挂", "3449": "催", "3450": "一片", "3451": "雨", "3452": "三角形", "3453": "趋近", "3454": "角度", "3455": "排序", "3456": "九十度", "3457": "对边", "3458": "统计", "3459": "导电", "3460": "元素", "3461": "溶剂", "3462": "饱和溶液", "3463": "沉淀", "3464": "地热", "3465": "交换", "3466": "财富", "3467": "蜘蛛侠", "3468": "teknolust", "3469": "发布", "3470": "音符", "3471": "音", "3472": "调式", "3473": "独奏", "3474": "多人", "3475": "乐队", "3476": "乐", "3477": "宗教", "3478": "曲", "3479": "夜晚", "3480": "键盘乐器", "3481": "低音", "3482": "落叶", "3483": "杀死", "3484": "松树", "3485": "杨树", "3486": "叶在", "3487": "水分子", "3488": "每年", "3489": "将来", "3490": "雌蕊", "3491": "开裂", "3492": "果", "3493": "子叶", "3494": "机遇", "3495": "利益", "3496": "对立", "3497": "欲望", "3498": "带来", "3499": "声誉", "3500": "怀疑", "3501": "总统", "3502": "账号", "3503": "添加", "3504": "联系人", "3505": "员", "3506": "退", "3507": "换货", "3508": "报销", "3509": "要求", "3510": "献血", "3511": "志愿者", "3512": "公益", "3513": "退税", "3514": "代缴", "3515": "违章", "3516": "驾照", "3517": "理赔", "3518": "学信网", "3519": "派出所", "3520": "医院", "3521": "命名", "3522": "回报", "3523": "功夫", "3524": "虚心接受", "3525": "量力而行", "3526": "贪心", "3527": "礼貌", "3528": "瘾君子", "3529": "如果", "3530": "敢肯定", "3531": "作弊", "3532": "偏执狂", "3533": "大概", "3534": "劳逸结合", "3535": "进展", "3536": "下周", "3537": "考研", "3538": "借", "3539": "答疑", "3540": "闪电", "3541": "气压", "3542": "冰川", "3543": "湿地", "3544": "草原", "3545": "温带", "3546": "密度", "3547": "介质", "3548": "叠加", "3549": "退款", "3550": "哪个", "3551": "脚本", "3552": "知识产权", "3553": "安全法", "3554": "广告", "3555": "管理法", "3556": "外国人", "3557": "保障法", "3558": "建筑", "3559": "采购", "3560": "和解", "3561": "异议", "3562": "法律文书", "3563": "失业", "3564": "占用", "3565": "队员", "3566": "板球", "3567": "四人", "3568": "长距离", "3569": "跳跃", "3570": "借助", "3571": "对手", "3572": "自行车赛", "3573": "坐轮椅", "3574": "内家", "3575": "综合", "3576": "功法", "3577": "联网", "3578": "分布式", "3579": "API", "3580": "接口", "3581": "虚拟现实", "3582": "5G", "3583": "架构", "3584": "审查", "3585": "并发", "3586": "异步", "3587": "阻塞", "3588": "超文本", "3589": "HTTPS", "3590": "TCP", "3591": "查找", "3592": "数组", "3593": "队列", "3594": "先进先出", "3595": "线性", "3596": "节点", "3597": "二叉树", "3598": "立体几何", "3599": "解析几何", "3600": "数列", "3601": "三角函数", "3602": "自然地理", "3603": "人文地理", "3604": "概率", "3605": "访问", "3606": "恶意软件", "3607": "浏览器", "3608": "音箱", "3609": "电视", "3610": "远程", "3611": "提醒", "3612": "去过", "3613": "民宿", "3614": "天晴", "3615": "晒被子", "3616": "银杏", "3617": "跨部门", "3618": "肝", "3619": "修士", "3620": "听说", "3621": "硬件", "3622": "羽毛", "3623": "黑", "3624": "喝水", "3625": "领地", "3626": "骨骼",
[...]
